<unk>	0
<s>	0
</s>	0
▁	-2.64544
�	-3.06537
.	-3.61099
s	-3.65436
▁the	-3.93667
▁I	-4.04989
'	-4.23159
▁a	-4.29662
,	-4.30863
▁to	-4.44255
▁is	-4.60976
▁and	-4.61266
n	-4.69844
▁you	-4.72567
t	-4.7954
!	-4.84953
▁of	-4.88495
▁this	-4.93928
▁it	-4.94611
\	-5.01769
▁in	-5.05514
?	-5.07929
▁that	-5.13601
▁for	-5.28405
ing	-5.39876
▁so	-5.42874
m	-5.44585
▁on	-5.50766
▁like	-5.55488
▁was	-5.61181
d	-5.62374
...	-5.67933
▁are	-5.68239
▁my	-5.69815
ed	-5.71368
▁be	-5.73859
▁with	-5.78291
▁love	-5.78357
▁your	-5.80668
▁have	-5.81353
y	-5.85295
▁but	-5.86826
▁me	-5.87211
▁i	-5.96684
▁video	-5.97999
▁just	-5.99612
e	-6.02731
▁not	-6.03363
re	-6.06476
▁he	-6.06623
▁do	-6.0733
▁can	-6.1068
▁The	-6.14067
▁all	-6.15942
-	-6.16408
▁they	-6.16619
▁This	-6.18306
ly	-6.26255
▁one	-6.32115
▁at	-6.3434
▁from	-6.34677
▁about	-6.35921
▁You	-6.35936
▁A	-6.38988
▁what	-6.39513
er	-6.40002
a	-6.41171
▁out	-6.41793
▁up	-6.45339
▁she	-6.45771
/	-6.4619
▁would	-6.46235
▁get	-6.47221
S	-6.50784
▁if	-6.5136
▁how	-6.52806
:	-6.54629
▁her	-6.54842
!!	-6.55719
▁when	-6.56963
!!!	-6.57017
▁song	-6.57261
▁or	-6.57483
ve	-6.57982
▁good	-6.58544
▁we	-6.58698
▁know	-6.5929
▁people	-6.60025
▁make	-6.63352
r	-6.6476
▁as	-6.65071
▁see	-6.67379
o	-6.67385
▁more	-6.69849
▁will	-6.70886
▁It	-6.72002
▁really	-6.72507
▁an	-6.73212
▁has	-6.74166
▁don	-6.7441
▁no	-6.77034
▁much	-6.77125
▁S	-6.77817
i	-6.79277
▁his	-6.79879
▁think	-6.81568
k	-6.81807
)	-6.82751
▁look	-6.86084
c	-6.8742
▁should	-6.88303
▁who	-6.88396
▁time	-6.88917
D	-6.89376
p	-6.89847
al	-6.90918
*	-6.92701
▁there	-6.93088
▁So	-6.93246
I	-6.93656
▁What	-6.94522
g	-6.97044
▁(	-6.97386
es	-6.97549
▁go	-6.97922
▁now	-6.99849
▁by	-7.00202
l	-7.01307
h	-7.01381
b	-7.0155
u	-7.04801
▁looks	-7.05058
T	-7.06499
▁because	-7.06682
in	-7.06863
▁That	-7.06927
▁want	-7.07336
▁great	-7.08927
▁did	-7.09713
▁only	-7.09844
▁them	-7.10638
▁got	-7.12688
▁Love	-7.13557
▁been	-7.13887
▁him	-7.14527
▁He	-7.14664
▁some	-7.14738
▁why	-7.1559
▁P	-7.15817
▁even	-7.16491
ll	-7.16616
▁had	-7.16954
://	-7.17853
▁back	-7.19086
w	-7.19235
▁T	-7.20382
le	-7.20494
▁these	-7.21723
▁their	-7.22262
▁too	-7.2332
▁B	-7.23751
▁F	-7.23872
▁u	-7.23969
▁going	-7.24527
▁best	-7.24708
▁shit	-7.25168
....	-7.2567
v	-7.25704
▁2	-7.25915
▁new	-7.2643
▁videos	-7.26967
▁still	-7.27295
f	-7.28141
▁better	-7.28462
▁amazing	-7.28562
▁way	-7.29147
▁#	-7.29333
st	-7.29346
▁\	-7.30036
▁watch	-7.31321
▁Why	-7.31336
▁C	-7.31449
▁than	-7.31489
▁lol	-7.3199
▁need	-7.32013
▁say	-7.32525
▁am	-7.33732
▁never	-7.34391
▁here	-7.34831
▁man	-7.34865
▁could	-7.35793
▁trending	-7.36299
▁music	-7.36418
▁guys	-7.36557
▁E	-7.36894
▁*	-7.37588
▁She	-7.37898
▁made	-7.38165
▁Can	-7.39258
▁please	-7.40608
or	-7.4117
it	-7.41201
▁were	-7.41303
▁right	-7.41769
▁ever	-7.41991
▁THE	-7.42248
▁always	-7.43265
▁movie	-7.43647
com	-7.43691
▁de	-7.43756
▁1	-7.43942
th	-7.44734
▁My	-7.44955
Y	-7.45303
A	-7.46772
be	-7.46966
O	-7.47175
▁beautiful	-7.47581
M	-7.48049
▁over	-7.48268
P	-7.48336
R	-7.48519
an	-7.48533
▁How	-7.48567
▁show	-7.48602
▁very	-7.50501
z	-7.51025
ra	-7.51366
▁does	-7.52282
▁guy	-7.52576
on	-7.53098
▁something	-7.53493
▁They	-7.5418
▁And	-7.54349
▁If	-7.54527
ta	-7.54797
▁thought	-7.54892
!!!!	-7.55546
▁thing	-7.55964
▁first	-7.56917
▁feel	-7.58935
▁off	-7.59164
https	-7.59333
▁life	-7.60188
E	-7.60352
▁We	-7.6053
▁3	-7.62131
▁same	-7.62246
▁channel	-7.62585
▁actually	-7.62824
F	-7.63169
en	-7.63722
▁other	-7.64634
▁bad	-7.66303
▁R	-7.66547
▁day	-7.66564
▁W	-7.66634
8	-7.66643
▁being	-7.66675
▁watching	-7.67382
se	-7.68255
▁real	-7.68443
▁work	-7.68714
▁didn	-7.68863
_	-7.68879
B	-7.68903
▁most	-7.69103
L	-7.69168
▁any	-7.69505
▁said	-7.69724
2	-7.69785
▁those	-7.70014
K	-7.701
▁where	-7.70184
▁girl	-7.70584
=	-7.70601
ic	-7.70672
▁Do	-7.70742
▁into	-7.71555
▁take	-7.71862
▁No	-7.72013
▁fucking	-7.72649
G	-7.72834
▁every	-7.73425
▁wait	-7.73473
▁use	-7.73667
▁before	-7.74204
▁funny	-7.74212
▁awesome	-7.74492
3	-7.74908
▁G	-7.75051
▁put	-7.7573
ch	-7.75872
▁YOU	-7.75898
▁come	-7.76072
▁well	-7.76712
▁M	-7.76788
0	-7.77348
ING	-7.77702
C	-7.78009
x	-7.78022
H	-7.78334
ri	-7.78453
est	-7.78599
▁after	-7.78627
▁fuck	-7.78673
▁down	-7.78701
▁world	-7.7922
▁:)	-7.79258
nI	-7.79966
▁its	-7.81487
▁little	-7.8167
ion	-7.81726
N	-7.82057
▁many	-7.82149
▁also	-7.82255
▁such	-7.8266
▁Thank	-7.84048
▁<3	-7.84926
▁U	-7.85132
▁name	-7.8518
el	-7.8541
▁give	-7.85748
is	-7.86157
▁us	-7.86725
▁voice	-7.87087
▁years	-7.87097
▁anyone	-7.87099
ur	-7.87281
▁keep	-7.87374
1	-7.87611
▁cute	-7.88162
▁else	-7.89084
ers	-7.89218
▁hope	-7.90062
▁K	-7.90231
us	-7.9024
▁then	-7.90742
▁Just	-7.90927
▁Trump	-7.91093
▁live	-7.91119
▁But	-7.91468
▁Who	-7.91655
▁doing	-7.91923
gonna	-7.92473
▁IS	-7.92695
ie	-7.93185
▁our	-7.93328
▁D	-7.93534
▁someone	-7.93908
4	-7.93999
▁old	-7.9435
▁Wow	-7.94573
▁white	-7.94601
▁THIS	-7.94816
ro	-7.94834
▁cool	-7.96225
U	-7.96428
▁black	-7.96701
J	-7.97171
▁Please	-7.97269
▁game	-7.97309
??	-7.97347
▁nice	-7.9747
▁When	-7.97658
▁everyone	-7.98899
▁God	-7.99122
▁things	-7.99201
▁end	-7.99846
▁job	-8.0002
▁:	-8.00047
▁dont	-8.00357
▁lot	-8.00675
▁makes	-8.00806
▁hate	-8.01081
able	-8.01105
▁part	-8.01235
▁-	-8.01273
▁Im	-8.01703
5	-8.01775
getting	-8.01878
▁doesn	-8.02154
▁O	-8.02528
▁face	-8.0255
▁f	-8.02903
▁again	-8.02934
▁hair	-8.03417
ter	-8.03532
▁pretty	-8.03924
▁hard	-8.04196
▁last	-8.04269
www	-8.04401
▁4	-8.04428
and	-8.04461
▁5	-8.04527
▁favorite	-8.04568
▁L	-8.04607
▁c	-8.0529
to	-8.05513
▁own	-8.05774
il	-8.06555
te	-8.07374
▁long	-8.07484
▁TO	-8.0758
▁try	-8.07701
me	-8.0797
▁SO	-8.08189
▁H	-8.08633
ar	-8.08938
▁LOVE	-8.0908
▁Your	-8.09252
▁next	-8.09359
▁making	-8.0937
li	-8.09906
▁Lol	-8.0994
▁sure	-8.10345
▁help	-8.11106
▁N	-8.11341
▁Great	-8.11765
▁&	-8.11827
7	-8.11981
▁wish	-8.12697
at	-8.12945
he	-8.12997
▁though	-8.13025
▁mean	-8.13597
la	-8.13779
▁tell	-8.13956
▁year	-8.13967
▁already	-8.14001
▁Hey	-8.14097
▁person	-8.14283
V	-8.14482
▁done	-8.1475
▁used	-8.15056
▁seen	-8.15398
▁let	-8.15549
▁10	-8.1638
▁stop	-8.16574
j	-8.16858
W	-8.1707
▁happy	-8.18788
▁Oh	-8.18809
id	-8.18848
ir	-8.18913
▁Hi	-8.19321
▁makeup	-8.19349
▁another	-8.19683
ate	-8.1995
ED	-8.19982
▁im	-8.20013
▁Good	-8.20055
▁find	-8.20146
▁everything	-8.20158
ma	-8.20685
ty	-8.20746
et	-8.21229
▁Omg	-8.21545
▁la	-8.21918
▁IT	-8.21948
???	-8.22376
less	-8.22439
▁YouTube	-8.22824
▁big	-8.22927
▁nothing	-8.23415
6	-8.23622
▁8	-8.24085
▁All	-8.24119
▁while	-8.24341
▁OMG	-8.24821
▁There	-8.24836
▁saw	-8.24898
▁play	-8.24998
▁money	-8.25006
ck	-8.25216
▁fan	-8.25693
um	-8.25708
▁through	-8.25767
9	-8.25799
▁trying	-8.2583
sh	-8.27354
▁start	-8.27479
ne	-8.27494
ha	-8.27719
▁fun	-8.27988
▁whole	-8.28014
▁car	-8.28894
ive	-8.29455
ce	-8.29858
ation	-8.29985
ity	-8.30101
▁different	-8.30202
do	-8.30544
.....	-8.3056
▁stuff	-8.30708
▁talk	-8.31203
▁two	-8.31224
man	-8.31239
co	-8.31717
youtu	-8.32179
▁since	-8.32759
▁anything	-8.32763
de	-8.32798
▁point	-8.32957
lo	-8.33097
▁without	-8.33439
▁views	-8.33691
▁sound	-8.33871
▁To	-8.3449
▁un	-8.34833
ga	-8.34931
▁b	-8.35111
▁phone	-8.35735
as	-8.36195
▁Not	-8.36681
▁sad	-8.36691
▁which	-8.36987
▁Thanks	-8.3706
up	-8.37567
▁AND	-8.37699
X	-8.38667
▁Me	-8.38809
▁Like	-8.39168
ia	-8.39236
▁eat	-8.39276
▁saying	-8.39373
▁story	-8.39703
▁wrong	-8.39707
os	-8.39715
ul	-8.4016
▁away	-8.40802
am	-8.41013
▁kind	-8.41228
▁FUCK	-8.41237
▁Where	-8.41949
▁con	-8.42
▁comment	-8.42197
▁Don	-8.4247
▁Go	-8.42914
▁sounds	-8.4306
ent	-8.43218
▁MY	-8.43787
▁ass	-8.43844
▁hear	-8.44325
▁called	-8.44499
▁high	-8.44641
▁V	-8.44859
▁Did	-8.44966
▁school	-8.45655
ry	-8.45805
▁country	-8.46
▁came	-8.46539
▁iPhone	-8.46576
▁stupid	-8.46587
▁trailer	-8.46587
▁understand	-8.46621
▁thank	-8.47029
!!!!!	-8.47056
▁loved	-8.4718
▁J	-8.47186
na	-8.4766
▁damn	-8.47864
▁Ho	-8.4793
(	-8.48181
▁god	-8.48269
▁baby	-8.48316
▁idea	-8.48477
mo	-8.48708
ni	-8.48907
ol	-8.4896
im	-8.48997
q	-8.49122
▁food	-8.49292
all	-8.49305
▁needs	-8.49405
Z	-8.49446
▁season	-8.49603
▁20	-8.49662
ru	-8.49681
▁around	-8.49725
pe	-8.49855
der	-8.49944
▁Y	-8.49945
▁coming	-8.50134
ER	-8.5019
▁far	-8.50311
▁co	-8.5053
ine	-8.50661
▁hell	-8.51603
▁both	-8.51764
▁comments	-8.51794
ting	-8.52623
▁left	-8.52667
▁cant	-8.52703
▁guess	-8.52708
▁Nice	-8.52727
▁Man	-8.53226
▁tho	-8.53261
▁believe	-8.53339
▁omg	-8.53852
▁Its	-8.53919
▁probably	-8.53977
▁7	-8.53978
▁Well	-8.54173
▁Yes	-8.54274
ist	-8.54537
&	-8.54638
▁po	-8.54747
ment	-8.54804
▁care	-8.54835
ver	-8.54932
ke	-8.54968
ies	-8.55159
▁having	-8.55913
▁Now	-8.56089
▁book	-8.56092
▁hot	-8.56455
▁ago	-8.56505
▁home	-8.56574
▁film	-8.56765
▁hit	-8.57008
▁women	-8.57224
▁enough	-8.57226
▁dude	-8.57249
youtube	-8.57448
▁wow	-8.57702
▁read	-8.57886
▁must	-8.57941
ca	-8.58205
Q	-8.58286
▁watched	-8.58417
▁gets	-8.58485
▁wanna	-8.59228
▁For	-8.59717
▁looking	-8.59772
▁wonder	-8.59972
▁album	-8.60578
op	-8.61043
▁literally	-8.61263
▁times	-8.61376
ba	-8.61781
▁super	-8.61803
AR	-8.62305
▁days	-8.62518
watch	-8.62524
▁head	-8.62664
oo	-8.63144
▁few	-8.63375
▁place	-8.63547
▁water	-8.63872
▁beat	-8.6417
▁review	-8.64253
▁America	-8.6432
▁w	-8.64353
▁remember	-8.6476
▁cake	-8.6479
▁DO	-8.64955
▁family	-8.65474
▁remind	-8.65474
▁cause	-8.65486
▁yet	-8.65507
po	-8.65576
▁knew	-8.66197
▁Fuck	-8.66497
▁free	-8.66542
nt	-8.6656
▁One	-8.66607
▁using	-8.66607
▁X	-8.6682
ness	-8.67051
go	-8.67503
▁kids	-8.6754
▁true	-8.67648
▁woman	-8.67657
▁skin	-8.67722
▁OF	-8.67788
▁side	-8.6787
▁ur	-8.67927
▁maybe	-8.68078
the	-8.68392
▁heart	-8.68503
un	-8.68584
▁check	-8.68869
▁songs	-8.68998
▁isn	-8.69047
▁THAT	-8.69125
▁call	-8.69166
▁yes	-8.69321
▁que	-8.69495
▁joke	-8.69607
▁fact	-8.69734
▁heard	-8.69754
ee	-8.69915
▁dis	-8.7009
▁went	-8.70105
▁reason	-8.70239
▁p	-8.70284
▁found	-8.70593
▁version	-8.70622
ut	-8.7082
▁buy	-8.71076
▁bro	-8.71288
▁house	-8.71406
▁happened	-8.7166
▁6	-8.71669
LE	-8.72311
▁least	-8.72646
▁weird	-8.72914
▁vid	-8.72957
▁NOT	-8.73087
▁full	-8.73159
LY	-8.73222
▁talking	-8.73604
▁http	-8.73928
ad	-8.73928
▁power	-8.7395
▁ma	-8.7407
▁Ha	-8.74271
▁won	-8.74284
▁ME	-8.74458
▁instead	-8.74469
▁myself	-8.74514
▁almo	-8.74572
▁seems	-8.74747
▁perfect	-8.75274
▁might	-8.76068
ge	-8.76133
▁mind	-8.76253
pa	-8.76437
▁Re	-8.76447
mm	-8.76574
▁Amazing	-8.7685
▁top	-8.76921
▁laugh	-8.77065
IN	-8.77418
ap	-8.77582
▁racist	-8.7766
▁pay	-8.78159
▁US	-8.78203
▁oh	-8.78259
dy	-8.78343
▁excited	-8.7847
▁agree	-8.7847
▁ya	-8.78503
▁St	-8.78862
▁De	-8.78876
?!	-8.78934
RE	-8.79134
▁question	-8.79153
▁week	-8.79183
▁Ma	-8.79361
▁Damn	-8.79461
son	-8.79546
▁John	-8.79624
▁today	-8.79826
▁started	-8.79856
▁problem	-8.79996
▁together	-8.80117
▁episode	-8.80199
OR	-8.80218
ther	-8.80223
ph	-8.8024
▁As	-8.80333
da	-8.80351
▁bit	-8.80581
▁FOR	-8.8093
▁dead	-8.80961
▁sorry	-8.81157
▁American	-8.81184
▁listen	-8.81658
▁fake	-8.81816
▁says	-8.82319
▁die	-8.82423
AN	-8.8247
▁Does	-8.82637
▁glad	-8.82637
▁each	-8.82638
▁Get	-8.82726
▁eyes	-8.82734
▁night	-8.82756
tic	-8.82941
▁fire	-8.83227
▁interesting	-8.83572
▁original	-8.83686
▁cat	-8.83734
IT	-8.84078
▁miss	-8.84302
▁absolute	-8.84353
▁trump	-8.84353
▁Wait	-8.84355
rs	-8.8452
ill	-8.84607
▁ha	-8.85044
ally	-8.85114
▁hand	-8.85337
we	-8.85704
▁waiting	-8.85742
tra	-8.85747
▁team	-8.85968
▁cu	-8.86299
▁win	-8.86555
▁Be	-8.86611
lu	-8.86727
▁support	-8.86942
▁half	-8.86992
nd	-8.87066
che	-8.87248
▁ON	-8.8736
▁9	-8.87719
di	-8.87763
▁bitch	-8.87831
▁proud	-8.87888
ide	-8.87912
▁NO	-8.87937
▁happen	-8.88084
▁break	-8.88311
▁once	-8.88639
▁Or	-8.88803
▁Make	-8.88838
▁kid	-8.88959
▁IN	-8.89136
ci	-8.89339
▁friends	-8.89394
per	-8.89739
my	-8.89842
ice	-8.89871
▁kinda	-8.89961
mon	-8.90001
AL	-8.90044
ish	-8.9008
▁news	-8.90164
▁mom	-8.90168
ig	-8.90237
▁word	-8.90438
AT	-8.90481
▁million	-8.905
▁Let	-8.90561
▁LOL	-8.90614
▁become	-8.90619
▁gay	-8.90659
▁light	-8.90727
▁BE	-8.90847
ful	-8.9117
vi	-8.91172
▁change	-8.91213
age	-8.91342
▁definitely	-8.91536
▁wanted	-8.91761
ES	-8.91769
▁lost	-8.91807
▁Best	-8.91865
▁XD	-8.91902
▁dog	-8.92154
▁pro	-8.92316
ka	-8.92385
▁crazy	-8.92466
▁until	-8.9249
▁:(	-8.92606
ey	-8.92636
ary	-8.93483
▁stay	-8.93506
▁line	-8.93568
▁r	-8.93626
▁second	-8.93657
▁pre	-8.9382
no	-8.93925
▁100	-8.94452
out	-8.94725
▁lmao	-8.9484
▁g	-8.94871
min	-8.94882
▁fall	-8.94951
▁small	-8.95154
▁fast	-8.95176
▁title	-8.95324
om	-8.95484
▁Are	-8.95796
▁friend	-8.96066
ay	-8.96207
▁sweet	-8.96294
▁Co	-8.96405
▁rest	-8.96556
▁Beautiful	-8.96631
ah	-8.96708
▁On	-8.96835
▁Am	-8.96889
#	-8.97061
▁series	-8.97281
▁thanks	-8.97655
land	-8.97683
▁under	-8.97686
▁k	-8.97961
ian	-8.98126
▁dumb	-8.9826
▁red	-8.98462
ton	-8.98792
▁enjoy	-8.98929
▁New	-8.99109
gu	-8.99178
▁gun	-8.99221
▁shirt	-8.99223
▁Mo	-8.99242
▁turn	-8.99381
▁La	-8.99429
▁Awesome	-8.99535
▁may	-8.99695
▁At	-8.99979
▁Also	-9.00286
▁took	-9.00347
▁camera	-9.00367
▁less	-9.01081
▁Her	-9.01277
▁mo	-9.01506
▁piece	-9.01741
▁color	-9.01775
▁wear	-9.02238
▁ok	-9.02276
que	-9.024
ng	-9.02613
ho	-9.0267
▁seeing	-9.02954
▁boy	-9.03056
▁set	-9.03128
▁hilarious	-9.03368
bo	-9.03415
▁human	-9.03454
ant	-9.03456
▁type	-9.03903
▁youtube	-9.04012
▁Maybe	-9.04208
em	-9.04368
▁Keep	-9.04434
▁50	-9.04452
ny	-9.045
wa	-9.04669
▁thumbnail	-9.05484
▁foundation	-9.05547
▁moment	-9.0556
CH	-9.05803
▁band	-9.05844
▁soon	-9.05991
ard	-9.06009
▁died	-9.06274
▁cut	-9.06435
▁body	-9.06438
▁close	-9.065
▁playing	-9.06517
▁throw	-9.06566
▁matter	-9.06624
▁lo	-9.06748
▁Was	-9.06767
for	-9.06778
against	-9.06806
nA	-9.06922
▁dur	-9.07228
by	-9.0725
▁sing	-9.07274
▁comes	-9.075
ous	-9.07534
▁bo	-9.07623
▁level	-9.0765
▁didnt	-9.0788
▁learn	-9.07943
▁cover	-9.07999
▁mu	-9.08222
▁interview	-9.08315
▁goes	-9.08476
▁bring	-9.08645
▁sense	-9.08774
▁People	-9.08958
tion	-9.09267
▁respect	-9.09268
▁worth	-9.09317
▁space	-9.09416
▁fight	-9.09427
ure	-9.09444
ti	-9.09459
▁shot	-9.09512
ip	-9.0963
▁o	-9.09738
so	-9.10014
ber	-9.10243
ated	-9.10525
▁sp	-9.10604
ever	-9.10706
ack	-9.10721
▁haha	-9.10899
▁kill	-9.10952
▁rock	-9.10967
▁anymore	-9.10999
▁ja	-9.11462
one	-9.11522
▁dad	-9.11612
TH	-9.11652
IC	-9.11712
our	-9.11741
▁tutorial	-9.11758
AM	-9.11796
▁Ro	-9.119
▁PLEASE	-9.12116
ep	-9.12131
▁okay	-9.1216
▁GO	-9.12164
▁style	-9.12171
▁run	-9.12257
▁YOUR	-9.12445
▁..	-9.13008
pi	-9.13015
▁wasn	-9.13382
▁seem	-9.13408
▁wouldn	-9.13608
▁build	-9.13754
▁af	-9.14035
bi	-9.14041
▁Tom	-9.1405
▁men	-9.14099
gg	-9.14267
▁thinking	-9.14425
ub	-9.14431
▁screen	-9.14434
▁earth	-9.14488
ial	-9.14559
▁en	-9.14678
ac	-9.14894
EN	-9.1531
▁ask	-9.1535
▁yourself	-9.15666
▁bi	-9.16079
vo	-9.16266
▁Bo	-9.1645
▁post	-9.16523
▁2017	-9.16545
▁birthday	-9.16797
▁gave	-9.16818
▁apple	-9.16839
gen	-9.16879
▁leave	-9.16969
ass	-9.17037
▁talented	-9.17053
io	-9.17303
▁stand	-9.17311
▁explain	-9.17531
▁artist	-9.17811
▁tried	-9.18122
▁state	-9.18156
▁crying	-9.18437
▁star	-9.18459
▁Every	-9.18738
ect	-9.18785
▁ALL	-9.18787
▁add	-9.18815
▁create	-9.18946
▁di	-9.1909
!!!!!!	-9.19092
ner	-9.19162
▁between	-9.19223
▁Anyone	-9.19228
00	-9.19357
ud	-9.19375
▁Jesus	-9.19453
▁HE	-9.1963
ted	-9.20024
▁working	-9.20057
!!!!!!!!!!!!!!!!	-9.20159
▁sub	-9.20219
totally	-9.20248
▁Ryan	-9.20455
▁Apple	-9.20455
▁Looks	-9.20501
▁self	-9.20706
▁More	-9.20817
▁eye	-9.2086
ling	-9.20973
▁ex	-9.21194
▁per	-9.21469
▁young	-9.21482
▁Halloween	-9.21704
▁jack	-9.21715
ring	-9.21982
▁act	-9.22216
uch	-9.22221
▁LIKE	-9.22319
▁hands	-9.22501
fa	-9.22505
▁em	-9.2255
▁cry	-9.22558
▁gu	-9.22565
▁yeah	-9.22576
▁move	-9.22637
▁Look	-9.22948
▁background	-9.2297
▁Hollywood	-9.22975
▁Black	-9.22975
▁hold	-9.22992
▁poor	-9.23095
aw	-9.23554
▁list	-9.23612
......	-9.23636
ow	-9.23842
▁With	-9.24254
▁wtf	-9.24257
▁Lo	-9.24343
▁ARE	-9.2462
▁killed	-9.24633
▁His	-9.24815
▁sucks	-9.24914
hose	-9.25089
lar	-9.25173
ight	-9.25323
ake	-9.25332
▁media	-9.25346
▁either	-9.25551
▁gorgeous	-9.25551
▁short	-9.25553
▁late	-9.2566
▁couldn	-9.2576
▁sick	-9.25891
▁vs	-9.25937
▁WAS	-9.25949
MA	-9.26009
▁Al	-9.26376
▁drop	-9.26755
▁Congrats	-9.26867
▁terrible	-9.26867
▁future	-9.26867
▁middle	-9.26868
rd	-9.26932
▁seriously	-9.26952
▁honestly	-9.27048
▁fine	-9.27345
▁bar	-9.27378
▁inside	-9.27509
mer	-9.2761
▁laughing	-9.27621
nS	-9.27644
▁feeling	-9.27971
time	-9.28117
▁couple	-9.282
▁James	-9.28218
▁number	-9.28254
▁single	-9.283
▁low	-9.28381
▁YES	-9.28385
▁liked	-9.28585
▁bu	-9.28945
ble	-9.29038
▁dance	-9.29188
tor	-9.29429
▁age	-9.29508
▁bullshit	-9.29552
▁behind	-9.29552
▁box	-9.29566
▁Hope	-9.29598
▁Very	-9.29621
ance	-9.29678
▁movies	-9.29821
▁girls	-9.30054
▁lie	-9.30122
▁IM	-9.30184
▁12	-9.30206
▁follow	-9.30469
▁Ju	-9.30597
za	-9.30727
▁Ra	-9.30786
▁du	-9.30867
but	-9.30883
▁children	-9.30923
▁record	-9.30924
▁iphone	-9.30952
▁da	-9.31225
▁Sp	-9.31346
▁art	-9.31355
▁room	-9.31363
you	-9.31427
▁Pa	-9.31495
▁Da	-9.31536
tch	-9.31643
▁WHAT	-9.3172
side	-9.3203
▁fat	-9.32061
nhttp	-9.32179
▁Li	-9.32299
▁dark	-9.32395
▁finally	-9.32438
▁games	-9.32443
nother	-9.32463
RT	-9.3253
az	-9.32542
▁hi	-9.32669
▁test	-9.32789
▁Le	-9.32826
20	-9.32832
▁open	-9.32927
▁wearing	-9.32931
▁mi	-9.33141
ping	-9.33149
▁honest	-9.33229
ix	-9.33501
▁AMAZING	-9.33718
▁course	-9.33719
▁worst	-9.33719
▁pumpkin	-9.3372
▁mother	-9.33742
▁huge	-9.33777
▁dream	-9.33933
▁annoying	-9.33944
▁brother	-9.33945
▁wants	-9.34442
ors	-9.3449
▁told	-9.34532
▁fans	-9.34702
▁x	-9.34742
▁class	-9.34774
▁slow	-9.35107
ped	-9.35118
▁straight	-9.35147
▁truly	-9.35147
▁beginning	-9.35148
▁sauce	-9.35149
▁finger	-9.35156
ang	-9.35196
▁Sa	-9.35248
ST	-9.35407
cha	-9.35461
▁yo	-9.35466
▁se	-9.35524
fi	-9.35551
30	-9.35717
▁view	-9.35803
▁gra	-9.35855
ger	-9.3601
ile	-9.362
▁Some	-9.36356
▁happens	-9.36433
ea	-9.36478
▁entire	-9.36597
▁supposed	-9.3669
IL	-9.36715
▁means	-9.36759
▁Po	-9.36855
▁bet	-9.3686
bs	-9.37
▁missed	-9.37164
AS	-9.37207
▁Di	-9.37275
RO	-9.37344
art	-9.37424
:\	-9.37522
love	-9.37535
▁pls	-9.37615
????	-9.37722
▁strong	-9.37893
▁speed	-9.3807
▁case	-9.38151
▁xD	-9.38205
nThe	-9.38576
▁content	-9.38582
▁Video	-9.38582
▁Loved	-9.38684
jo	-9.38698
ff	-9.38938
▁DE	-9.3904
▁plus	-9.39191
▁Jo	-9.39259
line	-9.3952
▁answer	-9.3956
▁simple	-9.3956
nut	-9.39579
▁crap	-9.39609
▁stick	-9.3961
▁knows	-9.3964
LO	-9.39712
▁bear	-9.39886
▁tu	-9.39921
▁speak	-9.40026
LL	-9.40271
uck	-9.40302
▁taste	-9.40493
▁Here	-9.40713
▁words	-9.4083
▁picture	-9.41075
▁quality	-9.41075
▁Would	-9.41075
▁lady	-9.41133
▁near	-9.4114
▁Really	-9.41205
ite	-9.41281
▁Have	-9.41357
▁hurt	-9.41538
▁past	-9.41599
lic	-9.41641
gl	-9.41736
).	-9.41783
▁months	-9.41893
ki	-9.41908
lin	-9.42178
lan	-9.42182
▁talent	-9.42282
11	-9.4232
▁taking	-9.42667
▁president	-9.42672
▁deserve	-9.42726
▁br	-9.43036
▁mad	-9.433
ON	-9.43371
▁LA	-9.43596
SE	-9.43675
way	-9.43726
ex	-9.43893
▁products	-9.44129
▁history	-9.44177
▁smile	-9.44179
▁push	-9.44193
▁Dude	-9.44209
ions	-9.44267
▁grow	-9.44384
▁Yeah	-9.44506
▁control	-9.446
rr	-9.44638
▁bag	-9.44658
▁NFL	-9.44739
LI	-9.44921
sha	-9.45102
▁easy	-9.45764
▁important	-9.45786
▁dick	-9.45807
▁su	-9.45812
▁pop	-9.45906
▁ball	-9.46044
end	-9.4609
▁vi	-9.46271
▁freak	-9.46309
ze	-9.46324
ught	-9.4634
ot	-9.46354
nYou	-9.46659
▁shows	-9.46754
wi	-9.4676
▁VIDEO	-9.4693
hi	-9.46963
▁UP	-9.46996
▁natural	-9.47178
IS	-9.4728
▁pass	-9.4731
nMe	-9.4737
▁Trending	-9.47376
▁favourite	-9.47376
▁opinion	-9.47376
▁Could	-9.47376
▁sharing	-9.47377
▁trash	-9.47379
fully	-9.47432
▁incredible	-9.47438
▁possible	-9.47449
▁haven	-9.47488
▁Ar	-9.47543
▁forget	-9.47559
▁exist	-9.4772
ris	-9.4775
▁subs	-9.47905
▁Too	-9.48004
▁eating	-9.48748
▁First	-9.48825
mb	-9.48993
▁smart	-9.49015
▁attack	-9.49018
▁track	-9.49019
▁Even	-9.49029
▁etc	-9.49043
▁blame	-9.49069
▁actual	-9.49084
▁cancer	-9.49158
▁subscribe	-9.4923
▁sell	-9.49327
▁imagine	-9.49432
▁Chris	-9.4956
ign	-9.49612
▁forever	-9.49772
The	-9.49782
▁WE	-9.49838
▁Ba	-9.50054
▁por	-9.50109
▁played	-9.50182
▁Je	-9.502
▁walk	-9.50221
▁19	-9.50251
▁Con	-9.50294
▁drive	-9.50354
▁dogs	-9.50387
50	-9.50551
CK	-9.50552
▁Un	-9.50631
▁Google	-9.50682
▁mouth	-9.50682
▁page	-9.5074
▁BEST	-9.50761
ja	-9.50823
▁GOD	-9.50909
▁whatever	-9.50935
rk	-9.50975
▁si	-9.5106
▁gone	-9.51064
▁Got	-9.51083
app	-9.5109
▁turned	-9.51245
ag	-9.5129
EL	-9.51371
▁character	-9.51449
▁month	-9.51477
tro	-9.51721
ox	-9.51845
▁el	-9.52023
▁release	-9.52154
▁lose	-9.52313
nB	-9.5233
▁touch	-9.52348
▁TRENDING	-9.52377
▁blue	-9.52377
▁death	-9.52378
▁rather	-9.52384
▁message	-9.52389
▁ugly	-9.52392
felt	-9.52404
▁Star	-9.5246
▁Come	-9.52732
▁CAN	-9.52876
▁button	-9.52894
row	-9.52956
▁suck	-9.53117
▁ready	-9.53133
ten	-9.53343
▁bless	-9.53445
▁Fucking	-9.53462
▁Any	-9.53477
▁guns	-9.53498
19	-9.53594
ft	-9.53618
low	-9.53642
▁link	-9.53693
▁je	-9.53711
▁plz	-9.53798
IR	-9.53833
cy	-9.54023
▁pl	-9.54053
▁giving	-9.54101
▁living	-9.54103
▁WITH	-9.54106
▁SONG	-9.54111
▁Ok	-9.54119
▁Cool	-9.54138
▁share	-9.5416
▁na	-9.54266
gh	-9.54355
BO	-9.54461
▁GET	-9.54468
▁Congratulations	-9.54706
▁wa	-9.5487
▁Ca	-9.54892
▁sister	-9.55011
▁sooo	-9.55019
▁war	-9.55197
rie	-9.55332
ear	-9.55423
▁lit	-9.55471
▁realize	-9.55521
los	-9.5555
rry	-9.5557
▁h	-9.55684
▁Rick	-9.55856
▁alone	-9.55872
▁deep	-9.55993
▁rid	-9.56005
ron	-9.56007
nAnd	-9.56146
▁TV	-9.56188
▁model	-9.56239
▁Mi	-9.56563
▁hey	-9.56587
▁Ben	-9.56853
hh	-9.56983
▁AT	-9.57095
not	-9.57251
▁soul	-9.57268
▁mention	-9.57339
aking	-9.57403
▁normal	-9.5744
▁30	-9.57445
▁chance	-9.57654
▁spot	-9.57659
▁Paul	-9.57673
▁clip	-9.57729
▁exactly	-9.5775
▁Dear	-9.57755
▁save	-9.57845
▁land	-9.5789
ky	-9.57937
ou	-9.58071
▁non	-9.58093
die	-9.58104
▁design	-9.58241
▁vids	-9.58316
▁ba	-9.58371
day	-9.58442
mi	-9.58457
fl	-9.58595
tin	-9.5872
bra	-9.58803
ence	-9.58826
▁An	-9.5899
▁fish	-9.59037
ug	-9.59185
ound	-9.59213
oooo	-9.59278
port	-9.59349
OW	-9.5936
▁recommend	-9.59459
▁similar	-9.59459
▁amount	-9.59462
▁outfit	-9.59463
▁boring	-9.59481
▁bomb	-9.59482
▁chicken	-9.59487
▁Youtube	-9.5953
lly	-9.59538
ley	-9.59615
▁RIP	-9.59649
▁sex	-9.59679
eeee	-9.59713
▁ITS	-9.59725
▁pick	-9.59741
▁ad	-9.59756
▁pure	-9.59756
▁=	-9.59956
CE	-9.59982
▁works	-9.60093
▁meet	-9.60184
▁intro	-9.60205
▁longer	-9.60233
ob	-9.60283
TA	-9.60411
cent	-9.6056
▁Haha	-9.60633
▁Cr	-9.60779
▁special	-9.60858
▁needed	-9.60867
▁burn	-9.60893
kin	-9.60942
PA	-9.61072
▁Nick	-9.61196
$	-9.61283
▁Taylor	-9.61311
▁difference	-9.61311
▁White	-9.61311
▁adorable	-9.61312
▁cringe	-9.61313
▁GOOD	-9.61314
▁sexy	-9.61349
▁Never	-9.61386
▁Z	-9.61417
ana	-9.61423
▁sign	-9.61454
▁sa	-9.61469
▁Song	-9.61584
▁based	-9.61606
▁13	-9.61609
▁noticed	-9.61671
NE	-9.61675
▁send	-9.61696
▁doesnt	-9.61877
▁main	-9.61891
ating	-9.61993
ina	-9.62005
▁15	-9.62142
ward	-9.62185
▁listening	-9.6233
▁Ne	-9.62333
▁Su	-9.62382
▁scene	-9.6244
head	-9.62474
zo	-9.62612
▁reading	-9.62624
▁vote	-9.62732
▁$	-9.62852
▁theory	-9.62989
▁three	-9.63199
▁Adam	-9.63202
▁jump	-9.63209
▁spend	-9.63212
nM	-9.6322
▁rich	-9.63224
▁animation	-9.63245
gi	-9.633
▁catch	-9.63384
▁queen	-9.6342
▁200	-9.63432
▁cost	-9.63522
10	-9.63582
▁cares	-9.63663
▁Because	-9.63718
IE	-9.63941
ding	-9.64114
▁Mr	-9.6413
▁Jon	-9.64208
▁cap	-9.64401
▁Of	-9.64419
▁shouldn	-9.64517
▁11	-9.64632
▁Fro	-9.64635
SS	-9.64636
▁drink	-9.64664
▁Fa	-9.64705
▁google	-9.6475
▁dress	-9.64804
▁click	-9.64811
▁hours	-9.64919
▁MORE	-9.64921
of	-9.64982
ue	-9.65002
▁price	-9.65118
▁child	-9.65121
▁Arnold	-9.65121
▁speech	-9.65121
▁beauty	-9.65121
▁wife	-9.65121
▁performance	-9.65124
▁especially	-9.6513
▁basically	-9.65131
▁Girl	-9.65163
▁alive	-9.65167
▁MUCH	-9.65212
ham	-9.65221
▁notice	-9.65262
▁scared	-9.65349
▁along	-9.65421
ism	-9.6544
▁Com	-9.65594
▁forward	-9.65651
DA	-9.65761
▁Ga	-9.65787
▁Car	-9.65802
▁race	-9.65878
ized	-9.65917
key	-9.65958
▁singing	-9.66002
▁mess	-9.66051
▁Pro	-9.66051
UN	-9.66081
▁front	-9.66251
▁ca	-9.66305
ik	-9.66438
▁clear	-9.66512
RA	-9.66571
**	-9.66672
▁Na	-9.66706
▁Sc	-9.66858
bb	-9.66902
▁cook	-9.66927
▁HA	-9.66982
UR	-9.67048
.......	-9.67068
▁Should	-9.67082
▁experience	-9.67082
▁female	-9.67082
▁system	-9.67082
▁simply	-9.67082
▁worse	-9.67082
▁Lmao	-9.67082
▁government	-9.67084
▁bought	-9.67097
▁train	-9.67097
▁cream	-9.67099
SH	-9.67103
▁disgusting	-9.67114
if	-9.67118
▁Stop	-9.67128
▁completely	-9.67168
▁El	-9.67203
red	-9.67235
▁mar	-9.67246
▁brain	-9.67257
▁Mar	-9.6728
▁shooting	-9.6737
▁OH	-9.67394
▁minutes	-9.67564
verything	-9.67964
men	-9.67973
▁deal	-9.68055
▁te	-9.68123
▁public	-9.68233
▁pun	-9.68264
EAR	-9.68295
▁Will	-9.68325
▁fr	-9.68422
▁wondering	-9.68426
eee	-9.6853
▁hole	-9.68614
aaa	-9.68755
▁90	-9.68968
▁chi	-9.68988
▁photo	-9.69078
▁President	-9.69082
▁choice	-9.69082
▁WTF	-9.69082
▁running	-9.69089
uerto	-9.69103
▁j	-9.69123
EST	-9.69141
▁brand	-9.69142
▁Alex	-9.69151
▁telling	-9.69221
▁bigge	-9.69222
▁SHE	-9.69285
ens	-9.69374
▁questions	-9.69416
▁door	-9.69549
▁Christ	-9.69556
ak	-9.69562
▁sort	-9.69592
▁tv	-9.69755
▁sh	-9.69824
▁Life	-9.69943
▁Check	-9.69962
▁asking	-9.70047
60	-9.7007
▁singer	-9.70111
car	-9.70117
This	-9.70164
▁Steve	-9.70234
▁JUST	-9.70284
▁nail	-9.703
▁aren	-9.70366
▁min	-9.704
ore	-9.70433
▁seconds	-9.70586
▁lip	-9.70933
▁Perfect	-9.71122
▁def	-9.71134
▁80	-9.71138
▁fix	-9.71183
▁anyway	-9.71184
ster	-9.71293
▁chill	-9.71306
▁Ya	-9.71497
▁peace	-9.71829
▁lyrics	-9.71926
▁dope	-9.71961
▁Super	-9.71973
▁Sorry	-9.72259
imp	-9.72267
▁expect	-9.72404
▁write	-9.72445
▁minute	-9.72696
qui	-9.72781
▁th	-9.7279
▁pen	-9.72867
▁0	-9.72929
▁final	-9.73016
king	-9.73045
▁challenge	-9.73206
▁forgot	-9.7321
▁BACK	-9.73211
▁Everyone	-9.73225
ough	-9.73226
▁Demi	-9.73231
▁flag	-9.73249
▁early	-9.73334
nW	-9.73374
▁pa	-9.73393
▁cannot	-9.73479
rate	-9.73527
▁Yo	-9.7361
▁wonderful	-9.73719
▁cast	-9.73739
ations	-9.73827
▁va	-9.7401
ail	-9.74333
▁jo	-9.74369
▁born	-9.74435
ica	-9.74527
UM	-9.74568
▁dollars	-9.74596
▁air	-9.74747
▁le	-9.7475
nO	-9.74755
▁hurricane	-9.74826
nH	-9.75024
▁boo	-9.75055
▁luck	-9.75072
this	-9.75136
▁others	-9.75153
▁complain	-9.75333
▁nigga	-9.75333
▁truth	-9.75333
▁Wtf	-9.75338
▁Luke	-9.75345
▁BUT	-9.75347
▁extreme	-9.75356
▁brown	-9.75364
▁v	-9.75492
▁safe	-9.75556
▁isnt	-9.75583
▁wall	-9.75603
ook	-9.75605
▁ST	-9.75701
▁1000	-9.75718
▁pan	-9.75778
99	-9.75857
▁order	-9.75878
▁Jimmy	-9.75926
▁plan	-9.76014
tal	-9.76124
▁feels	-9.76401
▁May	-9.76431
af	-9.76596
▁Watch	-9.77045
▁force	-9.77294
vil	-9.7735
▁comp	-9.77503
▁murder	-9.77507
▁section	-9.77507
Pretty	-9.7751
▁focus	-9.7751
▁Liza	-9.77524
▁bunch	-9.77526
ast	-9.77535
▁WOW	-9.77582
py	-9.77831
▁OUT	-9.77918
▁WHERE	-9.78104
▁REAL	-9.78178
▁credit	-9.78275
▁soooo	-9.78308
▁soo	-9.78342
DI	-9.78343
▁killing	-9.78405
▁appreciate	-9.78464
▁sw	-9.78483
VE	-9.78485
ld	-9.78487
ran	-9.78639
▁town	-9.78692
▁mix	-9.78753
TS	-9.78986
▁San	-9.79042
lay	-9.79062
iv	-9.79089
ier	-9.79235
▁headphone	-9.79325
unt	-9.79337
▁idiot	-9.79352
CA	-9.79355
TER	-9.79462
/?	-9.79467
▁cheap	-9.79559
AC	-9.79703
▁collab	-9.79729
▁expensive	-9.7973
▁Harvey	-9.7973
▁costume	-9.7973
▁giant	-9.79732
▁Okay	-9.79747
▁HAVE	-9.79753
▁cried	-9.79754
hich	-9.79774
▁paid	-9.79784
▁HOW	-9.79786
▁plane	-9.79813
▁treat	-9.7985
▁usually	-9.79874
▁meaning	-9.79907
▁till	-9.79915
▁surprised	-9.79932
▁note	-9.80032
▁mental	-9.80143
▁nu	-9.80172
▁Ex	-9.80279
▁fit	-9.80412
AW	-9.80557
can	-9.80601
▁building	-9.80618
▁14	-9.807
▁jokes	-9.80774
▁#1	-9.80865
ane	-9.80944
▁Dr	-9.8101
▁ruin	-9.81026
▁subscribers	-9.81175
AH	-9.81218
▁Still	-9.81256
ric	-9.81325
oooooooooooooooo	-9.81378
▁Si	-9.814
▁prefer	-9.81413
qua	-9.81416
OM	-9.81645
aught	-9.81687
▁phones	-9.81777
ory	-9.81777
!!!!!!!	-9.81825
▁Mexico	-9.82002
▁Disney	-9.82002
▁pizza	-9.82002
▁political	-9.82003
▁decide	-9.82003
▁internet	-9.82007
▁except	-9.82012
▁ONE	-9.82016
▁WHO	-9.82026
▁Samsung	-9.82027
▁wo	-9.82032
▁legit	-9.82035
▁xx	-9.82048
▁fair	-9.82051
▁Kim	-9.82159
▁scary	-9.82162
TE	-9.82206
▁action	-9.82207
▁Most	-9.82207
EE	-9.82221
▁mio	-9.82284
tain	-9.82309
17	-9.82375
nP	-9.82463
NT	-9.82485
boy	-9.82553
▁Du	-9.82647
EX	-9.82691
▁famous	-9.82811
▁Que	-9.82929
LM	-9.82931
▁inspire	-9.82996
▁missing	-9.83237
ET	-9.83363
vin	-9.83819
now	-9.83974
cri	-9.83975
▁mine	-9.83976
▁issue	-9.84121
omeone	-9.84175
▁inspiration	-9.84226
ress	-9.84278
▁energy	-9.84328
▁fantastic	-9.84328
▁Finally	-9.84328
▁WHY	-9.84328
▁machine	-9.84329
▁parents	-9.84329
▁repeat	-9.8433
▁legend	-9.84332
▁swear	-9.84336
▁ppl	-9.84352
▁confused	-9.84376
▁Green	-9.84376
▁step	-9.84389
▁Rock	-9.84402
▁reaction	-9.84435
OP	-9.84459
ise	-9.84496
▁large	-9.84505
▁city	-9.84526
▁lips	-9.8455
▁mil	-9.84558
▁disappointed	-9.84576
▁Time	-9.84621
thing	-9.84691
▁clicked	-9.84735
▁app	-9.8475
▁players	-9.84779
▁sexual	-9.84796
▁meant	-9.84892
▁player	-9.84903
▁Day	-9.84928
▁sometimes	-9.84929
▁auto	-9.84937
▁hero	-9.85187
13	-9.85453
16	-9.85481
ONE	-9.85592
▁mass	-9.85858
hu	-9.85884
▁Big	-9.86075
nor	-9.86115
arent	-9.86205
▁sleep	-9.86237
▁trend	-9.86255
▁millions	-9.86351
rew	-9.86499
▁base	-9.86505
ize	-9.86572
▁lives	-9.8658
▁available	-9.86709
▁chocolate	-9.86709
▁college	-9.86709
▁secret	-9.86709
▁business	-9.86709
▁thousand	-9.86709
▁Next	-9.8671
▁football	-9.86711
▁accent	-9.86712
▁visit	-9.86712
▁social	-9.86718
▁Stephen	-9.86719
▁Chan	-9.86763
▁national	-9.86789
ler	-9.86859
ew	-9.87005
▁Try	-9.87045
▁Americans	-9.87051
▁problems	-9.87056
ek	-9.871
ERS	-9.87286
NA	-9.87315
ump	-9.87321
act	-9.87436
▁Th	-9.87665
LA	-9.8788
▁crack	-9.87945
og	-9.88218
hhh	-9.88237
nk	-9.88446
bit	-9.88656
▁paint	-9.88698
au	-9.88704
SM	-9.88803
US	-9.88813
▁blood	-9.88853
▁certain	-9.88948
▁Sam	-9.89034
▁accept	-9.89148
▁Happy	-9.89148
▁clean	-9.89148
▁Rico	-9.89149
▁father	-9.89151
▁garbage	-9.89151
▁wild	-9.89152
▁MAKE	-9.89181
▁mic	-9.89185
IST	-9.89194
▁role	-9.89196
▁trick	-9.89214
▁nobody	-9.89265
▁NOW	-9.89273
▁Show	-9.89279
▁Br	-9.89295
▁ain	-9.89332
▁store	-9.89374
▁lucky	-9.89482
ENT	-9.89503
▁UK	-9.89521
▁16	-9.89675
▁bra	-9.89792
▁ending	-9.89798
yyy	-9.89819
▁handle	-9.89877
▁count	-9.89917
PE	-9.90032
AB	-9.90136
▁DID	-9.90137
▁Guys	-9.90247
▁After	-9.90397
ec	-9.90485
▁mis	-9.90507
OO	-9.90518
body	-9.90518
AY	-9.9073
▁tears	-9.91023
▁continue	-9.91036
wn	-9.91052
nIt	-9.9114
▁pull	-9.91385
dios	-9.91427
mate	-9.91492
PL	-9.91541
▁liberal	-9.91551
▁hahaha	-9.91647
▁BEAUTIFUL	-9.91648
▁genuine	-9.91648
▁horror	-9.91648
▁relationship	-9.91648
▁popular	-9.91651
▁green	-9.91653
▁shade	-9.91659
▁shame	-9.9166
▁Jack	-9.91674
▁dislikes	-9.91682
▁himself	-9.91682
▁bump	-9.91686
▁pants	-9.91687
▁match	-9.91687
▁comedy	-9.91791
▁Sound	-9.91824
▁fo	-9.9188
▁fucked	-9.9194
ray	-9.92075
▁law	-9.92312
ock	-9.92401
▁Ja	-9.92462
▁AM	-9.9248
▁ice	-9.92514
ez	-9.92553
MM	-9.92636
▁gift	-9.92929
▁Gr	-9.92937
▁ban	-9.93224
▁broke	-9.93351
▁SEE	-9.93375
nHe	-9.93596
▁pu	-9.93609
▁Bro	-9.93622
hhhh	-9.93819
▁destroy	-9.93872
HA	-9.93876
▁cars	-9.93926
▁animal	-9.94197
▁EVER	-9.94205
quite	-9.94207
▁Australia	-9.94212
▁KNOW	-9.94212
▁switch	-9.94212
▁Kylie	-9.94212
▁street	-9.94212
▁daughter	-9.94212
▁blind	-9.94212
▁Learn	-9.94213
▁moving	-9.94213
▁morning	-9.94215
▁NEED	-9.94215
▁paper	-9.94233
▁evil	-9.94248
▁Jackie	-9.9425
▁everyday	-9.94275
▁idk	-9.94278
GA	-9.94329
▁cunt	-9.9434
▁park	-9.94486
dge	-9.94506
▁OK	-9.9456
▁dislike	-9.94767
▁released	-9.94865
▁fuckin	-9.94873
led	-9.94874
its	-9.94916
rc	-9.94945
▁cre	-9.94968
coming	-9.95011
▁ho	-9.95068
DD	-9.95094
▁acting	-9.95213
=1	-9.95215
net	-9.95224
▁fav	-9.95299
raid	-9.95411
▁ship	-9.95416
▁:/	-9.95664
▁ran	-9.9572
▁Free	-9.95728
▁LMAO	-9.95732
gar	-9.95844
▁Dan	-9.95855
▁cup	-9.95985
<	-9.96348
▁vo	-9.96433
ada	-9.96529
▁fail	-9.96543
ain	-9.9655
▁Weinstein	-9.96844
▁crush	-9.96844
▁genius	-9.96844
▁illegal	-9.96844
▁David	-9.96844
▁general	-9.96845
▁clown	-9.96847
▁animals	-9.9686
▁Shane	-9.96869
nBut	-9.96871
29	-9.96891
▁gold	-9.96908
▁Har	-9.96933
▁glasses	-9.96939
nit	-9.96969
▁cats	-9.96982
▁Asian	-9.97011
let	-9.97028
nc	-9.97106
ple	-9.9719
lon	-9.97204
▁prove	-9.97258
▁rap	-9.97392
GGG	-9.97478
▁Mike	-9.97504
light	-9.97565
▁male	-9.97724
▁Che	-9.97752
ship	-9.9788
range	-9.97927
?!?	-9.97941
▁older	-9.98146
▁ju	-9.9827
▁humans	-9.98324
23	-9.986
▁compare	-9.98643
lf	-9.98683
lla	-9.98694
▁hop	-9.99009
▁due	-9.99193
▁waste	-9.99203
15	-9.99267
▁product	-9.99285
▁bat	-9.99462
▁Michael	-9.99546
▁attention	-9.99546
▁figure	-9.99546
▁major	-9.99546
▁project	-9.99546
▁trust	-9.99547
▁SHIT	-9.99584
▁Harry	-9.99593
▁spice	-9.99597
▁troll	-9.99607
▁creepy	-9.99654
▁fear	-9.99715
▁holy	-9.99794
▁personal	-9.99969
▁rip	-10.0006
▁suit	-10.0008
▁table	-10.0009
***	-10.0014
cer	-10.002
▁Say	-10.0047
▁See	-10.0056
▁sin	-10.0059
▁rep	-10.0061
▁pack	-10.0063
▁changed	-10.0064
▁hat	-10.0065
ative	-10.0086
▁present	-10.009
refer	-10.0094
80	-10.0102
like	-10.0111
more	-10.0117
▁Hahaha	-10.0131
▁HOL	-10.0132
ical	-10.0134
▁american	-10.0149
use	-10.0168
▁Se	-10.0169
SA	-10.0177
une	-10.018
▁Then	-10.018
▁actors	-10.0191
aaaaa	-10.0194
ities	-10.0201
AP	-10.021
sss	-10.0212
▁rec	-10.0214
2.	-10.0217
een	-10.0221
▁react	-10.0221
▁glass	-10.0222
▁1.	-10.023
▁Wonder	-10.0232
▁English	-10.0232
▁husband	-10.0232
▁twist	-10.0232
▁Scott	-10.0232
▁Earth	-10.0232
▁negative	-10.0233
▁Kelly	-10.0233
▁return	-10.0233
▁Nile	-10.0239
▁obviously	-10.0245
▁Out	-10.0247
ino	-10.0256
▁wont	-10.0256
▁bigger	-10.0257
▁reality	-10.0259
▁issues	-10.0265
▁outside	-10.0267
▁OR	-10.0268
▁yall	-10.0269
▁Justin	-10.027
anna	-10.0273
▁Game	-10.0277
▁sun	-10.0278
▁later	-10.0284
▁Cor	-10.0294
▁Hello	-10.0305
ndo	-10.0312
ase	-10.0315
list	-10.0317
▁enjoyed	-10.0327
▁anti	-10.0328
--	-10.0334
▁planet	-10.0342
ade	-10.0347
uff	-10.0356
33	-10.0362
BU	-10.0372
▁sal	-10.038
▁para	-10.0384
▁BA	-10.039
▁Ive	-10.0426
▁vibes	-10.0427
▁related	-10.0433
that	-10.0434
▁Hell	-10.044
ef	-10.045
ible	-10.0453
▁lovely	-10.0455
▁gr	-10.0456
▁tour	-10.0469
▁Mu	-10.0473
▁RE	-10.0477
▁size	-10.0485
▁strange	-10.0492
▁AN	-10.0494
▁tax	-10.0517
▁awkward	-10.0518
▁brilliant	-10.0518
▁guitar	-10.0518
▁hungry	-10.0518
▁information	-10.0518
▁themselves	-10.0518
▁Colbert	-10.0518
▁babies	-10.0518
▁FROM	-10.0518
▁Casey	-10.0518
▁Donald	-10.0518
▁fu	-10.0519
unk	-10.0519
▁inter	-10.0519
kept	-10.052
▁ground	-10.052
▁North	-10.0521
▁personality	-10.0521
▁plot	-10.0521
▁roll	-10.0522
▁horrible	-10.0522
▁upset	-10.0522
........	-10.0523
▁billion	-10.0527
▁everybody	-10.0528
▁Real	-10.0536
▁emotional	-10.0542
▁USA	-10.0544
▁recipe	-10.0545
▁Give	-10.0545
▁flat	-10.0557
▁hour	-10.0557
back	-10.0563
▁weeks	-10.0569
org	-10.0572
▁milk	-10.0578
▁subscribed	-10.0583
▁bc	-10.0591
▁THEY	-10.0603
▁nails	-10.0607
▁trip	-10.0607
▁pat	-10.0613
▁protect	-10.0615
ID	-10.0619
illa	-10.0623
▁spirit	-10.0635
▁King	-10.0654
ku	-10.0659
nNo	-10.0667
▁mac	-10.0671
▁colors	-10.0675
fer	-10.0679
▁sur	-10.0681
▁creative	-10.0688
ify	-10.0692
most	-10.0705
URE	-10.0708
las	-10.0712
▁ones	-10.0714
▁gas	-10.0721
▁meat	-10.073
are	-10.0749
air	-10.0755
▁date	-10.0758
UL	-10.0761
▁report	-10.0764
ung	-10.0764
▁extra	-10.0766
GO	-10.0768
▁consider	-10.0778
ien	-10.0784
▁serious	-10.0793
▁0:2	-10.0799
▁sea	-10.0806
▁Subscribe	-10.081
▁GREAT	-10.0812
▁Obama	-10.0812
▁example	-10.0812
▁material	-10.0812
▁choose	-10.0812
▁floor	-10.0812
▁group	-10.0812
▁mistake	-10.0812
▁travel	-10.0812
▁racism	-10.0813
▁smell	-10.0813
▁search	-10.0813
▁remix	-10.0814
▁sitting	-10.0814
▁Seriously	-10.0815
▁feet	-10.0815
▁HELL	-10.0818
▁Honestly	-10.0818
▁Nothing	-10.0819
graph	-10.0821
▁poop	-10.0823
▁Right	-10.0824
▁hack	-10.0826
aid	-10.0832
▁healthy	-10.0838
▁wing	-10.0843
▁effect	-10.0846
uh	-10.0847
▁stock	-10.0849
▁names	-10.0852
▁rice	-10.0852
▁younger	-10.0855
▁Put	-10.0855
▁fe	-10.0856
▁king	-10.0859
▁idiots	-10.0863
▁worked	-10.0882
goo	-10.0895
▁candy	-10.0901
▁theme	-10.0908
▁alot	-10.0916
chi	-10.0918
ok	-10.0922
▁bare	-10.0922
▁killer	-10.0924
nic	-10.0925
MO	-10.0933
nF	-10.0944
ooo	-10.0952
▁porn	-10.0957
▁often	-10.096
▁Vi	-10.0962
24	-10.0967
hor	-10.0976
▁thinks	-10.0981
▁classic	-10.0982
▁Te	-10.0985
▁Ch	-10.099
▁boys	-10.0994
▁calling	-10.0999
nce	-10.1016
what	-10.1017
pl	-10.1035
▁DON	-10.1041
gin	-10.1051
▁MAN	-10.1056
▁meme	-10.1073
ji	-10.1076
▁survive	-10.1078
NS	-10.1079
▁Ah	-10.1079
ND	-10.1087
▁CO	-10.109
dr	-10.11
▁WAIT	-10.1112
▁pain	-10.1115
▁inspiring	-10.1115
▁company	-10.1115
▁process	-10.1115
▁teeth	-10.1115
▁vegan	-10.1115
▁Kylo	-10.1115
▁loving	-10.1115
▁double	-10.1115
▁tired	-10.1116
▁unique	-10.1116
▁WILL	-10.1116
▁knock	-10.1116
▁display	-10.1117
▁Ellen	-10.112
▁block	-10.112
▁pretend	-10.112
▁Christian	-10.112
IF	-10.1131
▁pink	-10.1133
print	-10.1145
▁personally	-10.1148
▁manage	-10.1148
▁itself	-10.1153
▁nation	-10.1158
▁Didn	-10.1159
ELL	-10.1162
!!!!!!!!!!!	-10.1165
▁vlog	-10.1168
how	-10.1171
▁actor	-10.1179
dia	-10.1179
rage	-10.1183
18	-10.1196
▁youtuber	-10.1204
▁sold	-10.1207
▁learned	-10.121
▁weight	-10.1221
▁generation	-10.1225
rank	-10.1237
32	-10.1251
▁esta	-10.1274
▁characters	-10.1284
▁buying	-10.1304
▁shoot	-10.1335
uz	-10.1337
▁wood	-10.1337
col	-10.1338
pp	-10.1339
OOOO	-10.135
wo	-10.1357
▁Red	-10.1365
▁helped	-10.1366
▁lil	-10.1368
RY	-10.1373
roll	-10.1375
ese	-10.1376
▁youtubers	-10.1386
▁Dis	-10.1389
▁fill	-10.1394
▁disappoint	-10.1394
▁Bea	-10.1396
▁quick	-10.141
▁Chinese	-10.1428
▁MUSIC	-10.1428
▁congrats	-10.1428
▁ridiculous	-10.1428
▁Jeremy	-10.1428
▁WHEN	-10.1428
▁random	-10.1428
▁Logan	-10.1428
▁plastic	-10.1428
▁awful	-10.1428
▁Music	-10.1429
▁girlfriend	-10.1429
▁stuck	-10.1429
▁humor	-10.143
▁Lord	-10.143
▁shut	-10.1432
▁winner	-10.1434
▁blah	-10.1435
▁kiss	-10.1436
Since	-10.1436
▁Roman	-10.1437
▁tech	-10.1437
▁cross	-10.1438
▁recently	-10.1439
▁host	-10.1445
▁Wish	-10.1445
ong	-10.1449
ando	-10.1458
▁Bill	-10.1466
nR	-10.1466
47	-10.1477
hood	-10.1478
▁Bless	-10.1479
lol	-10.1495
▁pig	-10.1512
▁cla	-10.152
rick	-10.1526
lick	-10.153
AND	-10.1531
▁grab	-10.154
GU	-10.1541
OT	-10.1541
▁LOOK	-10.1546
▁mini	-10.1548
je	-10.155
▁fighting	-10.156
▁tan	-10.1564
fic	-10.1574
▁cop	-10.1588
▁comedian	-10.159
pin	-10.1603
▁foot	-10.1614
ker	-10.1621
▁Sad	-10.1629
▁lock	-10.1632
▁key	-10.1647
▁Cu	-10.1652
▁War	-10.1676
enty	-10.1679
▁hearing	-10.1684
▁Wars	-10.1688
▁spa	-10.1701
▁loss	-10.1702
just	-10.1705
arch	-10.1714
▁exact	-10.1732
bur	-10.1743
▁tri	-10.1748
▁stunning	-10.175
FAGGOT	-10.175
nAlso	-10.175
▁experiment	-10.175
▁language	-10.175
▁science	-10.175
▁clothes	-10.175
▁reach	-10.175
▁SNL	-10.175
▁storm	-10.1751
▁value	-10.1751
source	-10.1751
▁road	-10.1751
▁worry	-10.1751
▁common	-10.1752
▁collection	-10.1752
▁everywhere	-10.1754
▁positive	-10.1754
35	-10.1758
▁somebody	-10.1761
▁Matt	-10.1766
iff	-10.1767
▁gotten	-10.1768
▁Jane	-10.1768
ME	-10.1775
▁weak	-10.1782
:)	-10.1788
▁Sh	-10.1788
uk	-10.1793
▁40	-10.1794
mil	-10.1797
▁scream	-10.1819
▁expecting	-10.1823
over	-10.1832
NO	-10.1836
▁online	-10.1842
ists	-10.1844
,000	-10.1851
▁Isn	-10.1881
▁Yay	-10.1883
49	-10.189
▁card	-10.1912
VER	-10.192
▁blow	-10.1947
real	-10.1961
45	-10.1963
▁deserves	-10.1978
read	-10.1999
ANT	-10.2003
▁plant	-10.2003
▁Gre	-10.2017
▁Mon	-10.202
▁18	-10.2025
▁market	-10.2039
▁given	-10.2041
▁health	-10.2053
▁Mac	-10.2058
ious	-10.2059
▁usual	-10.2067
era	-10.2076
ski	-10.2077
▁Vegas	-10.2084
▁buzzfeed	-10.2084
▁pregnant	-10.2084
▁propaganda	-10.2084
▁church	-10.2084
▁twice	-10.2084
▁nature	-10.2084
▁Always	-10.2084
▁appear	-10.2084
▁average	-10.2084
▁lipstick	-10.2084
▁California	-10.2084
▁QUEEN	-10.2084
▁STOP	-10.2085
▁Morty	-10.2085
▁CUTE	-10.2086
▁House	-10.2086
▁tone	-10.2087
▁hook	-10.2088
▁egg	-10.2089
▁powerful	-10.209
▁ring	-10.2093
OUR	-10.2095
▁update	-10.21
▁moon	-10.2104
000	-10.2111
▁thi	-10.2112
get	-10.2113
everal	-10.2117
▁Our	-10.2121
▁screaming	-10.2132
shop	-10.2134
.........	-10.2136
sssss	-10.2139
▁pal	-10.2148
25	-10.2151
▁cooking	-10.2163
▁cheese	-10.2167
▁taken	-10.218
▁asked	-10.2183
yo	-10.2193
▁opening	-10.2195
▁GOT	-10.2214
fuck	-10.2218
NI	-10.2223
▁pet	-10.2228
▁cra	-10.2233
nC	-10.2234
ybody	-10.2239
hal	-10.2266
▁charge	-10.2282
ration	-10.2283
Wh	-10.2285
iz	-10.2298
▁mid	-10.2304
bro	-10.2305
lp	-10.2305
YYYY	-10.2306
▁Sub	-10.2316
▁ten	-10.2323
▁son	-10.2324
▁breath	-10.2331
SP	-10.2336
▁By	-10.2337
off	-10.2347
ified	-10.2401
▁:-)	-10.2407
▁current	-10.2409
Pay	-10.2414
▁parts	-10.2417
VO	-10.2427
▁AWESOME	-10.2429
▁Mexican	-10.2429
▁NIGGER	-10.2429
▁World	-10.2429
▁easily	-10.2429
▁mirror	-10.2429
▁pathetic	-10.2429
ability	-10.2429
instagram	-10.2429
▁engine	-10.2429
▁LIFE	-10.2429
▁pussy	-10.2429
▁crowd	-10.2429
▁DAMN	-10.2429
▁anthem	-10.2429
▁crime	-10.2429
▁ignore	-10.2429
▁represent	-10.2429
▁snake	-10.2429
▁reference	-10.2429
▁epic	-10.243
▁tear	-10.243
▁rapper	-10.243
▁Baby	-10.2431
▁insane	-10.2433
▁Hank	-10.2433
play	-10.2434
▁WANT	-10.2434
AIN	-10.2434
▁somewhere	-10.2435
▁Jake	-10.2438
▁join	-10.244
▁heat	-10.2441
▁coco	-10.2445
▁Way	-10.2449
▁Fake	-10.2452
nWhat	-10.2455
▁Pre	-10.2457
▁Been	-10.2459
▁remove	-10.2464
▁Dave	-10.2465
▁lead	-10.2477
▁shooter	-10.2481
udio	-10.2482
?!?!	-10.2509
▁realized	-10.251
ko	-10.2513
specially	-10.2513
ua	-10.2514
▁halloween	-10.2525
ments	-10.2529
anger	-10.2531
tag	-10.2534
▁Power	-10.2553
▁Cat	-10.2554
▁broken	-10.2556
▁Made	-10.256
▁pri	-10.2563
▁qu	-10.2571
ties	-10.2594
INE	-10.2605
▁ser	-10.2611
standing	-10.2613
AKE	-10.2621
▁Bar	-10.2628
▁sir	-10.2644
ax	-10.2651
▁career	-10.2653
▁books	-10.2657
▁21	-10.2661
▁Home	-10.2669
▁places	-10.2685
tar	-10.2694
cus	-10.2699
ICE	-10.2727
▁feed	-10.2727
IES	-10.2732
▁camp	-10.274
ston	-10.2748
ION	-10.2748
▁upload	-10.276
cade	-10.2768
▁pin	-10.2774
!!!!!!!!!	-10.2777
iii	-10.2779
▁develop	-10.2783
▁Brazil	-10.2783
▁Absolute	-10.2786
▁Eminem	-10.2786
▁Fantastic	-10.2786
▁knife	-10.2786
▁routine	-10.2786
▁Amazon	-10.2786
▁ocean	-10.2786
▁situation	-10.2786
▁police	-10.2786
▁msica	-10.2786
OTHER	-10.2786
▁btw	-10.2786
▁culture	-10.2786
▁yellow	-10.2787
▁footage	-10.2787
▁pic	-10.2788
▁claim	-10.2788
▁snap	-10.2788
▁Hannah	-10.2788
▁download	-10.2788
▁calm	-10.2789
▁fool	-10.2789
GG	-10.2789
▁gang	-10.279
▁towards	-10.2792
▁heavy	-10.2794
▁favor	-10.2795
EEEE	-10.2796
▁chris	-10.2797
▁laser	-10.2797
▁director	-10.2799
▁Jim	-10.2799
▁Mc	-10.28
▁Poor	-10.2801
▁dying	-10.2801
▁dry	-10.2805
▁currently	-10.2807
▁Take	-10.2808
▁stage	-10.2809
war	-10.2812
▁dat	-10.2813
▁loud	-10.2816
▁editing	-10.2817
▁copy	-10.2823
aaaa	-10.2832
▁talks	-10.2835
box	-10.2836
▁lately	-10.284
izing	-10.2843
▁lu	-10.2852
▁24	-10.2855
▁event	-10.2865
ome	-10.2874
▁topic	-10.2877
▁ear	-10.2879
▁sit	-10.2882
▁tune	-10.2883
▁Remember	-10.2885
▁walking	-10.2886
onic	-10.2892
▁rat	-10.2892
eeeeee	-10.2892
▁Yasss	-10.2895
▁Top	-10.2902
▁Cla	-10.2906
NC	-10.2909
▁whi	-10.2913
▁shots	-10.2916
▁sent	-10.292
▁laughed	-10.2939
▁van	-10.2947
▁sooooo	-10.2949
▁facts	-10.2959
▁falling	-10.2962
▁lying	-10.2969
IM	-10.297
mail	-10.2986
▁HER	-10.2994
▁Ko	-10.2996
▁Lov	-10.2999
BL	-10.3005
▁Ke	-10.3007
vel	-10.3022
nE	-10.3052
nia	-10.3062
▁Russia	-10.3063
▁party	-10.3075
fil	-10.308
ATE	-10.3081
01	-10.3087
OST	-10.309
▁$1	-10.3091
:10	-10.3105
▁THEM	-10.3105
▁flow	-10.3105
▁kick	-10.3122
nN	-10.3124
ita	-10.3127
40	-10.3146
elle	-10.3147
▁Little	-10.3156
▁blonde	-10.3156
▁result	-10.3156
▁terrorist	-10.3156
▁Hillary	-10.3156
▁concept	-10.3156
▁Actually	-10.3156
▁underrated	-10.3156
Imagine	-10.3156
▁heaven	-10.3156
▁official	-10.3156
▁Petty	-10.3156
▁married	-10.3156
▁Jenna	-10.3156
▁dancing	-10.3156
▁drunk	-10.3156
▁suffer	-10.3156
▁colour	-10.3156
▁filter	-10.3156
▁excuse	-10.3157
▁Space	-10.3157
▁option	-10.3158
▁Martin	-10.3159
▁TIME	-10.3159
▁highlight	-10.3159
▁prank	-10.3159
▁DNA	-10.3163
▁CNN	-10.3163
ara	-10.3163
▁skit	-10.3164
▁Peter	-10.3164
▁gain	-10.3165
▁flip	-10.3165
▁jacket	-10.3165
▁ANY	-10.3166
▁passion	-10.3166
▁EVERY	-10.3166
▁decent	-10.3169
cia	-10.3169
▁image	-10.317
▁liberals	-10.317
▁Play	-10.3171
▁jew	-10.3176
▁Norm	-10.3177
▁visual	-10.3178
▁showing	-10.3182
▁lack	-10.3183
▁lived	-10.3186
▁bla	-10.3187
▁char	-10.3188
▁leader	-10.3191
▁allow	-10.3203
▁Pe	-10.3204
???????	-10.3206
old	-10.3211
book	-10.3213
▁THO	-10.3218
ero	-10.3228
▁Mark	-10.3233
▁hating	-10.3234
▁passed	-10.3235
▁Watching	-10.3236
▁rick	-10.3262
64	-10.3262
ESS	-10.3262
▁growing	-10.3267
▁offer	-10.3277
cut	-10.328
▁ideas	-10.3282
▁starts	-10.329
▁vibe	-10.3291
GH	-10.3296
▁SP	-10.3309
▁Ros	-10.331
▁Hot	-10.3318
▁fly	-10.3338
▁press	-10.3341
lie	-10.3347
gging	-10.335
▁putt	-10.3352
▁Lu	-10.3357
▁pea	-10.337
▁Qu	-10.3376
CO	-10.3377
▁BR	-10.3378
Team	-10.3385
▁sports	-10.3388
ire	-10.3403
lace	-10.3408
even	-10.3415
star	-10.3423
▁tool	-10.3429
▁Men	-10.3431
▁Gu	-10.3437
▁Hahahaha	-10.3439
NN	-10.3444
bing	-10.3461
▁mor	-10.347
▁Col	-10.3472
▁area	-10.3476
nG	-10.3476
▁Sha	-10.3478
QU	-10.3479
▁vlogs	-10.3482
▁Use	-10.3489
▁South	-10.35
▁kit	-10.3501
▁finish	-10.3507
),	-10.3508
▁MO	-10.3512
only	-10.353
▁WO	-10.3535
▁total	-10.3539
YIAY	-10.354
including	-10.3541
▁bottle	-10.3541
▁earthquake	-10.3541
▁eyeshadow	-10.3541
▁suicide	-10.3541
▁welcome	-10.3541
▁written	-10.3541
▁writing	-10.3541
▁ABOUT	-10.3541
▁brush	-10.3541
▁club	-10.3541
▁commit	-10.3541
▁daily	-10.3541
▁monster	-10.3541
▁palette	-10.3541
▁Daniel	-10.3541
▁boyfriend	-10.3541
▁expos	-10.3541
lb	-10.3541
▁load	-10.3543
▁Miley	-10.3543
▁beyon	-10.3545
▁flight	-10.3546
▁0:3	-10.3547
▁obsessed	-10.3548
▁tree	-10.3549
▁Two	-10.3551
▁huh	-10.3551
▁Conan	-10.3555
▁somehow	-10.3556
▁raw	-10.3557
27	-10.3564
▁anxiety	-10.3566
▁relate	-10.3568
▁max	-10.3568
▁slight	-10.3568
▁corner	-10.3576
▁math	-10.3576
▁wave	-10.3579
ALL	-10.3582
BS	-10.3583
▁flying	-10.3589
Go	-10.3592
57	-10.3593
▁slowly	-10.3594
My	-10.3598
▁Iphone	-10.3599
clear	-10.3607
some	-10.3609
▁faster	-10.361
!!!!!!!!!!	-10.3611
▁HAS	-10.3616
▁dare	-10.3627
2017	-10.3628
TT	-10.3629
▁Gen	-10.3632
▁Wil	-10.3635
info	-10.3635
▁Russian	-10.364
aa	-10.3651
▁moved	-10.3656
▁Kill	-10.366
▁cutest	-10.3664
▁Por	-10.3665
came	-10.3671
▁dollar	-10.3679
▁CON	-10.3688
cal	-10.3689
▁shi	-10.3689
link	-10.3691
▁tea	-10.3694
▁draw	-10.3698
where	-10.3703
▁magic	-10.3704
Wa	-10.3714
ium	-10.3716
▁CAR	-10.372
▁correct	-10.3721
give	-10.3727
▁ref	-10.3729
▁par	-10.3737
▁loser	-10.3749
▁sat	-10.3757
acy	-10.3768
▁Note	-10.3772
▁mark	-10.3786
cur	-10.3794
▁Indian	-10.3794
ov	-10.38
rek	-10.3835
Fu	-10.3837
▁produce	-10.3863
46	-10.387
▁mode	-10.387
▁WI	-10.3877
▁25	-10.3878
well	-10.388
▁HO	-10.3887
▁surprise	-10.3904
nWe	-10.3909
iana	-10.3911
dic	-10.3914
eez	-10.3921
▁Clinton	-10.3941
▁delicious	-10.3941
▁purpose	-10.3941
▁smooth	-10.3941
▁stream	-10.3941
▁nightmare	-10.3941
▁regard	-10.3941
▁smash	-10.3941
▁Woman	-10.3941
▁freedom	-10.3941
▁Movie	-10.3941
▁concert	-10.3941
▁Christmas	-10.3941
▁emoji	-10.3941
▁automatic	-10.3941
▁depression	-10.3941
▁doubt	-10.3941
▁window	-10.3942
built	-10.3942
▁third	-10.3942
▁mask	-10.3942
▁Irma	-10.3943
yyyy	-10.3943
▁master	-10.3945
▁Amber	-10.3946
:00	-10.3946
▁anime	-10.395
▁Shit	-10.3951
▁rocket	-10.3951
▁Fire	-10.3951
▁taxes	-10.3955
89	-10.3957
▁pissed	-10.3958
▁crew	-10.396
▁teacher	-10.3961
▁HIM	-10.3963
▁Idk	-10.3964
▁COME	-10.3964
THING	-10.3971
▁score	-10.3975
▁finished	-10.3976
▁Send	-10.3979
zel	-10.3982
▁donate	-10.3986
ava	-10.3987
▁counter	-10.3989
▁raise	-10.3991
/2	-10.3993
iest	-10.3995
rink	-10.3995
AAA	-10.3995
▁Cant	-10.3999
▁0:5	-10.4006
▁beast	-10.4006
▁mentioned	-10.4017
▁Fall	-10.4019
gy	-10.4028
IVE	-10.4034
▁Call	-10.4037
ended	-10.404
▁bed	-10.4041
UC	-10.4052
▁17	-10.4052
▁Gal	-10.4055
video	-10.4057
life	-10.4059
▁higher	-10.406
▁Aw	-10.4065
unch	-10.4074
▁fresh	-10.4088
▁quit	-10.4109
▁shoes	-10.4113
OOOOO	-10.4119
ology	-10.4126
▁subscriber	-10.4127
eep	-10.4129
▁Steven	-10.4133
?????	-10.4135
HHH	-10.4135
hole	-10.4141
▁#2	-10.4148
▁happening	-10.4153
▁Dog	-10.4154
ball	-10.4164
▁AD	-10.4182
▁mal	-10.4187
BE	-10.4188
▁hip	-10.4195
▁seat	-10.42
▁scar	-10.4211
▁Foo	-10.4225
▁stone	-10.4228
hin	-10.4229
▁Awww	-10.423
▁sto	-10.4236
they	-10.4259
▁YouTuber	-10.426
EM	-10.4264
▁recognize	-10.4269
THE	-10.4282
75	-10.4288
▁Ever	-10.429
new	-10.4295
▁Plz	-10.4311
1.	-10.4314
▁knee	-10.4326
▁obvious	-10.4338
▁NEW	-10.4342
▁animat	-10.435
▁disrespect	-10.4356
▁across	-10.4357
▁commercial	-10.4357
▁companies	-10.4357
▁program	-10.4357
▁research	-10.4357
▁powder	-10.4357
▁polish	-10.4357
▁computer	-10.4357
▁period	-10.4357
▁stories	-10.4357
▁agenda	-10.4357
▁Weird	-10.4358
▁Wendy	-10.4358
ATION	-10.4358
▁illness	-10.4358
▁above	-10.4358
▁judge	-10.4358
NEVER	-10.4358
▁distract	-10.4358
▁contact	-10.4358
▁Netflix	-10.4358
▁curious	-10.4359
▁Marvel	-10.4359
▁drone	-10.4359
▁nigger	-10.436
III	-10.4361
▁impression	-10.4361
▁kidding	-10.4361
▁bright	-10.4361
▁Plus	-10.4361
▁Superman	-10.4363
▁Phil	-10.4363
▁cell	-10.4366
▁items	-10.4366
▁wig	-10.4366
▁involved	-10.4367
▁Seth	-10.4367
▁Canada	-10.4368
▁Read	-10.4368
▁herself	-10.4368
eva	-10.4368
▁THANK	-10.4369
▁dirty	-10.4369
▁Eva	-10.437
ooooo	-10.4373
▁likely	-10.4373
ux	-10.4373
▁rain	-10.4375
▁shape	-10.4376
▁Jew	-10.4379
bz	-10.438
▁retarded	-10.4382
▁enter	-10.4387
▁DR	-10.4389
▁hill	-10.439
▁hide	-10.4392
▁round	-10.4392
▁uploaded	-10.4397
:30	-10.4406
▁Sean	-10.4409
▁500	-10.4415
▁cash	-10.4421
▁episodes	-10.4429
ians	-10.4431
▁Need	-10.4434
▁joy	-10.4438
▁Korean	-10.4439
▁gosh	-10.4445
▁perfectly	-10.4463
gue	-10.4466
▁vol	-10.4478
▁posted	-10.4478
▁brave	-10.4481
▁multipl	-10.4491
AGE	-10.4506
work	-10.4513
part	-10.4517
You	-10.4537
Just	-10.4538
▁fired	-10.4545
oooooo	-10.4547
▁cro	-10.4556
gggg	-10.4564
▁sport	-10.457
▁haters	-10.4573
pping	-10.4581
▁Had	-10.4586
▁Ford	-10.4593
▁del	-10.4594
▁paying	-10.4603
▁odd	-10.463
ahah	-10.4637
▁Has	-10.4646
?!?!?!	-10.4651
nSo	-10.4655
hot	-10.4674
▁dig	-10.4682
SC	-10.4684
SSSS	-10.47
▁yea	-10.4703
▁prop	-10.4703
lot	-10.4709
,,,	-10.471
▁dies	-10.4724
▁70	-10.4725
▁dreams	-10.4725
tage	-10.4735
▁pray	-10.4746
▁direct	-10.4748
▁tf	-10.4759
▁complete	-10.4773
▁WA	-10.4787
▁den	-10.4789
xcept	-10.479
isten	-10.4791
petition	-10.4791
▁birth	-10.4791
▁GIRL	-10.4792
▁George	-10.4792
▁Gordon	-10.4792
▁Gorgeous	-10.4792
▁MADE	-10.4792
▁bottom	-10.4792
▁dangerous	-10.4792
▁military	-10.4792
▁popcorn	-10.4792
▁struggle	-10.4792
▁universe	-10.4792
holiday	-10.4792
▁study	-10.4792
▁wrote	-10.4792
▁Austin	-10.4792
▁charging	-10.4792
▁countries	-10.4792
▁false	-10.4792
▁pilot	-10.4792
▁adult	-10.4792
▁account	-10.4792
▁Oscar	-10.4792
▁ladies	-10.4792
▁forehead	-10.4792
▁EVERYTHING	-10.4792
▁States	-10.4793
▁Robert	-10.4793
▁kitchen	-10.4793
▁Funny	-10.4793
▁address	-10.4794
▁liar	-10.4794
▁chef	-10.4795
▁simulation	-10.4796
▁rude	-10.4796
script	-10.4796
▁SOME	-10.4796
ization	-10.4797
▁specific	-10.4797
▁bird	-10.4798
▁fuel	-10.4798
▁GUYS	-10.4799
▁dan	-10.48
▁Mad	-10.4801
▁BEEN	-10.4803
▁expression	-10.4803
▁Tell	-10.4805
▁chose	-10.4806
▁helpful	-10.4807
▁badass	-10.4812
▁leg	-10.4812
ery	-10.4818
▁realise	-10.4821
nThat	-10.4821
▁Unit	-10.4822
▁CANT	-10.4824
▁lame	-10.4825
▁clearly	-10.4838
▁lion	-10.4839
▁spread	-10.4843
▁pork	-10.4853
ref	-10.4855
bout	-10.487
▁adore	-10.4875
▁musician	-10.4878
▁spin	-10.4878
▁metal	-10.488
aving	-10.4884
DAY	-10.4889
▁driver	-10.4889
▁cor	-10.4894
▁Boy	-10.4902
▁wind	-10.4902
100	-10.4917
▁bill	-10.494
KK	-10.494
▁Ur	-10.4947
▁compar	-10.4949
▁Kar	-10.4957
▁Las	-10.4963
dle	-10.4964
▁interviews	-10.4967
▁ko	-10.497
▁Joe	-10.4972
▁spider	-10.4978
▁thumbs	-10.4982
▁Rey	-10.4984
▁rule	-10.4988
▁Rob	-10.4988
AVE	-10.4989
acc	-10.4994
girl	-10.5003
:15	-10.5014
ease	-10.5015
▁iron	-10.5018
ace	-10.5022
▁arms	-10.5026
▁serve	-10.5035
RES	-10.5046
▁essa	-10.5047
▁bother	-10.5049
26	-10.5059
▁Rose	-10.5062
PS	-10.5087
▁rev	-10.5087
tttt	-10.5088
ude	-10.5099
▁hurts	-10.5116
▁america	-10.512
▁TOO	-10.5168
ella	-10.517
▁JO	-10.5173
kkk	-10.5179
lane	-10.518
▁teach	-10.5185
▁hype	-10.5186
nGo	-10.519
ria	-10.5195
▁protest	-10.52
▁recipes	-10.5204
▁Were	-10.5224
▁PR	-10.5224
▁numbers	-10.5228
MAN	-10.5231
▁fashion	-10.5243
▁afford	-10.5244
amazon	-10.5247
▁CHANNEL	-10.5247
▁BITCH	-10.5247
▁Brilliant	-10.5247
▁Florida	-10.5247
▁HAPPY	-10.5247
▁Harrison	-10.5247
▁Literally	-10.5247
▁Miranda	-10.5247
▁October	-10.5247
▁Republican	-10.5247
▁Spanish	-10.5247
▁attempt	-10.5247
▁describe	-10.5247
▁description	-10.5247
▁english	-10.5247
▁response	-10.5247
▁yesterday	-10.5247
▁London	-10.5247
▁Smith	-10.5247
▁cartoon	-10.5247
▁Kimmel	-10.5247
▁sharp	-10.5247
▁Laura	-10.5247
▁population	-10.5247
▁soccer	-10.5247
▁spoke	-10.5247
▁steel	-10.5247
▁weather	-10.5247
▁float	-10.5247
▁tbh	-10.5247
Before	-10.5247
▁modern	-10.5247
▁chick	-10.5247
▁defense	-10.5247
▁gross	-10.5248
▁neck	-10.5249
▁shook	-10.5249
▁solid	-10.5249
▁launch	-10.525
▁crash	-10.5251
craft	-10.5251
▁Brad	-10.5251
▁Know	-10.5255
▁Nobody	-10.5255
▁direction	-10.5256
▁stopped	-10.5257
▁Queen	-10.5257
▁impressed	-10.5258
▁production	-10.5259
▁babe	-10.5263
facebook	-10.5271
!!!!!!!!	-10.5272
▁noise	-10.5273
▁shocked	-10.5276
FA	-10.5276
writer	-10.5278
/10	-10.5283
▁Kid	-10.5286
▁stranger	-10.5289
fund	-10.5293
52	-10.5296
▁five	-10.5303
▁sco	-10.5304
▁Jay	-10.5312
hoo	-10.5323
▁amo	-10.5329
▁Mars	-10.5337
▁saved	-10.5343
▁Cap	-10.5343
▁Bett	-10.5352
llen	-10.5366
▁notifications	-10.5367
▁Mitch	-10.537
▁WATCH	-10.5371
under	-10.5374
▁politics	-10.5375
▁skills	-10.5383
▁smoke	-10.5397
▁following	-10.5404
zer	-10.5417
UP	-10.5417
mission	-10.542
▁salt	-10.5422
▁board	-10.5424
essa	-10.5426
HHHH	-10.5428
▁covers	-10.5435
37	-10.544
rom	-10.545
oh	-10.546
mark	-10.5484
▁field	-10.5486
▁rob	-10.5492
▁comic	-10.5496
▁features	-10.55
point	-10.5501
▁pleas	-10.5508
▁fave	-10.5516
▁Bob	-10.5521
▁grown	-10.5525
▁Eat	-10.5525
▁legs	-10.5527
▁AS	-10.5547
▁Ill	-10.555
▁tough	-10.5552
▁Link	-10.5559
▁era	-10.5564
▁fell	-10.5578
cious	-10.5585
▁PS	-10.5593
FR	-10.5597
TY	-10.56
▁Yea	-10.5603
▁Dam	-10.5628
▁Africa	-10.5629
▁Korea	-10.563
▁bug	-10.5636
▁effects	-10.5665
▁una	-10.5681
Not	-10.5682
ISH	-10.5688
▁sweat	-10.5698
ette	-10.57
88	-10.57
ification	-10.5706
▁text	-10.5722
▁BEFORE	-10.5723
▁Welcome	-10.5723
▁accurate	-10.5723
▁celebrities	-10.5723
▁community	-10.5723
▁entertaining	-10.5723
▁flawless	-10.5723
▁happiness	-10.5723
▁industry	-10.5723
▁length	-10.5723
▁practice	-10.5723
▁security	-10.5723
▁service	-10.5723
▁surgery	-10.5723
▁balance	-10.5723
▁BABY	-10.5723
▁driving	-10.5723
▁ghost	-10.5723
▁audience	-10.5723
▁flavor	-10.5723
▁require	-10.5723
▁limit	-10.5723
▁Think	-10.5723
▁Tyler	-10.5723
▁equal	-10.5723
▁effort	-10.5723
▁masterpiece	-10.5723
▁clue	-10.5723
▁lift	-10.5724
▁British	-10.5724
▁mood	-10.5724
▁Talk	-10.5724
▁bruh	-10.5724
▁stress	-10.5724
▁Jewish	-10.5724
▁despi	-10.5725
▁society	-10.5725
▁mouse	-10.5725
▁education	-10.5725
▁Dumb	-10.5725
▁verse	-10.5726
▁squad	-10.5726
▁LIVE	-10.5727
▁guard	-10.5728
▁boi	-10.5728
▁proper	-10.5729
▁motion	-10.5729
▁tiny	-10.5729
▁gear	-10.573
▁coast	-10.5731
▁feelings	-10.5731
▁Stay	-10.5732
▁spent	-10.5733
Season	-10.5733
▁humanity	-10.5735
▁defend	-10.5736
▁uncle	-10.5736
EVEN	-10.5741
▁form	-10.5743
0000	-10.5743
▁nick	-10.5745
▁spinner	-10.5752
▁Max	-10.5755
▁WAY	-10.5757
▁Mel	-10.5762
UCH	-10.5763
▁apply	-10.5769
▁DJ	-10.5783
▁tab	-10.5797
MENT	-10.5808
▁smaller	-10.5809
▁African	-10.5817
▁Ball	-10.5823
loop	-10.5825
▁met	-10.583
lee	-10.5832
▁Woo	-10.5837
ante	-10.585
DO	-10.5857
▁cam	-10.5858
▁Hurricane	-10.5858
▁oil	-10.5863
▁gal	-10.588
▁legal	-10.5887
31	-10.5888
▁SHA	-10.5895
AK	-10.5895
▁qui	-10.5898
▁vocals	-10.5903
▁India	-10.5908
▁brings	-10.5918
▁feature	-10.5925
▁learning	-10.5932
▁interest	-10.5939
mente	-10.5952
▁cupcake	-10.5953
▁drug	-10.5955
cher	-10.5966
▁heck	-10.5972
▁plays	-10.599
▁uses	-10.5992
▁beard	-10.5998
AU	-10.6005
▁wars	-10.6006
count	-10.6012
money	-10.6022
▁fam	-10.6024
▁ble	-10.6028
▁3:2	-10.6039
▁insta	-10.6051
ual	-10.6053
▁bout	-10.6056
EEE	-10.606
▁balls	-10.6067
▁DIE	-10.6075
▁reviews	-10.6078
▁mostly	-10.6081
▁award	-10.6093
nif	-10.6099
ali	-10.6099
ALLY	-10.6103
CC	-10.6116
▁clo	-10.6123
JU	-10.6123
▁doll	-10.6124
▁cards	-10.6127
▁ears	-10.6138
hhhhh	-10.6155
▁Boo	-10.6155
▁bak	-10.6159
nam	-10.616
bel	-10.6164
CU	-10.6171
▁arm	-10.6171
▁steal	-10.6176
▁pr	-10.618
▁hang	-10.6184
▁affect	-10.6188
▁success	-10.6189
▁term	-10.6192
▁dar	-10.6193
ooooooo	-10.6197
▁suggest	-10.6201
▁angel	-10.6202
▁admit	-10.6208
▁replace	-10.622
▁cow	-10.6222
▁trans	-10.6222
mach	-10.6222
nPerson	-10.6223
▁Nikki	-10.6223
▁Pennywise	-10.6223
▁league	-10.6223
▁liquid	-10.6223
▁nervous	-10.6223
▁pixel	-10.6223
▁regular	-10.6223
▁restaurant	-10.6223
▁tragedy	-10.6223
▁trouble	-10.6223
▁Friday	-10.6223
▁Texas	-10.6223
▁degree	-10.6223
▁faggot	-10.6223
▁battery	-10.6223
▁exciting	-10.6223
▁piano	-10.6223
▁truck	-10.6223
▁promise	-10.6223
▁doctor	-10.6223
▁SHOW	-10.6223
▁deliver	-10.6223
▁screw	-10.6223
▁Japanese	-10.6223
▁android	-10.6223
▁FREE	-10.6223
▁Grace	-10.6223
▁studio	-10.6224
▁slap	-10.6224
▁Pink	-10.6224
▁childhood	-10.6224
YIAYtime	-10.6224
▁pressure	-10.6224
▁dinner	-10.6225
▁local	-10.6225
▁York	-10.6225
▁wireless	-10.6225
▁loose	-10.6225
▁sushi	-10.6225
▁grandma	-10.6226
▁stack	-10.6226
▁orange	-10.6227
▁risk	-10.6227
▁punch	-10.6228
▁shield	-10.623
▁Bruh	-10.623
▁FAKE	-10.6234
▁HERE	-10.6236
▁wake	-10.6238
▁station	-10.6241
▁belong	-10.6242
▁Start	-10.6245
▁laws	-10.6245
▁Rip	-10.6247
▁supporters	-10.6247
▁However	-10.6249
WW	-10.6251
▁los	-10.6257
▁leftist	-10.6257
▁Ugh	-10.6258
▁points	-10.626
▁moves	-10.6265
▁holo	-10.6267
▁overall	-10.6272
▁cheat	-10.6278
▁grade	-10.6278
▁pie	-10.628
▁considered	-10.6281
▁bitches	-10.6282
ORE	-10.6283
▁havent	-10.6286
▁Shar	-10.6289
▁however	-10.6292
▁pulled	-10.6292
▁Williams	-10.63
▁expected	-10.6306
▁dear	-10.6309
▁rape	-10.631
▁Hmmm	-10.6311
▁Fun	-10.6315
▁office	-10.6316
▁artists	-10.6317
▁sheep	-10.6318
▁QUE	-10.6324
▁slay	-10.6335
▁HI	-10.6346
▁opened	-10.6347
▁beside	-10.6351
▁1:2	-10.636
▁thick	-10.6363
▁added	-10.6367
▁abuse	-10.6369
▁victims	-10.637
room	-10.6374
inda	-10.6377
nvil	-10.6378
▁soft	-10.638
▁tutorials	-10.6387
GI	-10.6391
▁KD	-10.6395
▁grand	-10.6398
AAAAAAA	-10.6404
▁logic	-10.6411
▁Girls	-10.6414
▁THERE	-10.6425
▁Air	-10.6427
issa	-10.644
Wi	-10.6455
▁boots	-10.6455
34	-10.6457
▁corn	-10.6474
▁types	-10.6486
▁tribute	-10.6488
▁basic	-10.6492
▁Fan	-10.6493
iness	-10.6497
ima	-10.6498
▁drugs	-10.6498
38	-10.6516
hop	-10.652
▁Instagram	-10.6529
▁Off	-10.653
▁mill	-10.6541
▁icon	-10.6556
board	-10.6558
39	-10.6559
▁dang	-10.6563
gun	-10.6567
▁rn	-10.6579
▁ev	-10.6585
▁asf	-10.6587
▁esp	-10.6587
face	-10.6592
▁PRO	-10.6596
▁juice	-10.6616
▁demon	-10.6664
<3	-10.6671
HAHAHA	-10.6688
▁addict	-10.6716
▁shock	-10.6717
rist	-10.6723
▁possibl	-10.6725
IV	-10.6729
▁recent	-10.6739
▁lights	-10.6741
▁electric	-10.6747
▁perform	-10.6748
▁French	-10.6749
▁Interesting	-10.6749
▁Jennifer	-10.6749
▁Kardashian	-10.6749
▁coffee	-10.6749
▁collaboration	-10.6749
▁democrat	-10.6749
▁difficult	-10.6749
▁entertainment	-10.6749
▁hospital	-10.6749
▁platform	-10.6749
▁potential	-10.6749
▁typical	-10.6749
▁zombie	-10.6749
▁ESPN	-10.6749
▁easier	-10.6749
▁Rachel	-10.6749
▁knowledge	-10.6749
▁ASMR	-10.6749
▁puppet	-10.6749
▁viral	-10.6749
▁impact	-10.6749
▁shopping	-10.6749
▁provide	-10.6749
▁Dream	-10.6749
▁reveal	-10.6749
▁smiling	-10.6749
▁Facebook	-10.6749
▁bastard	-10.6749
▁wedding	-10.6749
WWWWWWWWWWWWWWWW	-10.6749
▁ticket	-10.6749
▁civil	-10.6749
▁Emmy	-10.6749
▁insult	-10.675
▁chips	-10.675
▁Glad	-10.675
▁summer	-10.675
REAKING	-10.675
▁frame	-10.675
▁slut	-10.675
▁pocket	-10.675
▁domino	-10.675
▁creating	-10.6751
▁banana	-10.6751
▁ratings	-10.6751
▁prison	-10.6752
▁Evans	-10.6752
▁busy	-10.6752
▁chain	-10.6752
▁China	-10.6753
▁fellow	-10.6753
▁Jackson	-10.6753
▁temp	-10.6753
▁proof	-10.6753
▁Hate	-10.6754
▁Thom	-10.6754
▁center	-10.6754
▁standard	-10.6754
▁anywhere	-10.6755
▁Tim	-10.6757
▁daddy	-10.6757
▁clone	-10.6758
ucci	-10.6759
▁connection	-10.6759
▁ONLY	-10.676
▁hits	-10.6763
▁matt	-10.6765
Chester	-10.6765
▁tits	-10.6767
▁Miss	-10.6773
▁edit	-10.6774
▁SAY	-10.6776
▁Both	-10.6776
▁sweater	-10.6777
▁bank	-10.6778
▁Much	-10.6778
▁:))	-10.6779
giveaway	-10.6781
ZA	-10.6781
▁lens	-10.6783
▁Wors	-10.6784
▁OFF	-10.6786
▁interested	-10.6787
▁pill	-10.6788
▁TRA	-10.679
▁hyped	-10.6793
▁teen	-10.6797
▁WHITE	-10.6798
▁unit	-10.6799
▁Jess	-10.6805
▁moral	-10.6816
▁begin	-10.6829
▁NY	-10.683
▁2:2	-10.6834
▁headphones	-10.6848
▁blessed	-10.6856
uce	-10.6857
▁stars	-10.6868
▁hurricanes	-10.6878
▁rot	-10.6884
▁site	-10.6895
▁emotions	-10.6906
USE	-10.6914
▁speaking	-10.6917
▁blast	-10.6921
▁cab	-10.6923
▁Cam	-10.6924
ike	-10.6929
▁hello	-10.6947
KS	-10.6955
Do	-10.6961
▁tips	-10.6962
▁scenes	-10.6967
▁Tar	-10.6971
▁members	-10.6992
▁YO	-10.7
▁reasons	-10.7028
wan	-10.7028
▁cuts	-10.7032
▁terms	-10.7036
▁comics	-10.7054
Katy	-10.7062
▁FL	-10.7066
ement	-10.7066
▁themed	-10.7073
Phone	-10.7089
AJ	-10.7093
▁Om	-10.7098
▁turns	-10.7109
▁twitter	-10.7117
:40	-10.7121
▁ahead	-10.7157
▁Came	-10.7159
▁Dar	-10.7164
IAN	-10.7174
▁fame	-10.7175
weight	-10.7177
▁chest	-10.7183
ants	-10.7196
▁butter	-10.7197
NG	-10.7199
PI	-10.7204
lash	-10.721
/4	-10.7213
▁brothers	-10.7226
▁conc	-10.7241
▁Pl	-10.7244
▁remov	-10.7247
izz	-10.7251
▁connect	-10.726
▁suppose	-10.7268
HU	-10.7273
▁xxx	-10.7274
hr	-10.729
▁retard	-10.7291
▁slave	-10.7303
▁Japan	-10.7304
Twitter	-10.7305
structure	-10.7305
▁CHRIST	-10.7305
▁Cassini	-10.7305
▁Democrat	-10.7305
▁Jordan	-10.7305
▁RIGHT	-10.7305
▁Starbucks	-10.7305
▁Stupid	-10.7305
▁Thumbs	-10.7305
▁Trailer	-10.7305
▁alcohol	-10.7305
▁citizen	-10.7305
▁decision	-10.7305
▁encanta	-10.7305
▁injured	-10.7305
▁journey	-10.7305
▁object	-10.7305
▁regret	-10.7305
▁scratch	-10.7305
▁subject	-10.7305
▁tattoo	-10.7305
▁Friend	-10.7305
▁advice	-10.7305
▁arnold	-10.7305
▁method	-10.7305
▁mustache	-10.7305
▁Legend	-10.7305
▁YOUTUBE	-10.7305
▁budget	-10.7305
▁remain	-10.7305
▁discuss	-10.7305
▁Lauren	-10.7305
▁fruit	-10.7305
▁xoxo	-10.7305
▁KILL	-10.7305
▁NASA	-10.7305
▁pennywise	-10.7305
▁congratulations	-10.7305
▁retire	-10.7305
▁lazy	-10.7305
▁sneak	-10.7305
▁john	-10.7305
▁monkey	-10.7305
▁Rich	-10.7305
▁gender	-10.7306
▁Work	-10.7306
▁wolf	-10.7306
▁remake	-10.7306
:35	-10.7306
▁Cause	-10.7306
▁dragon	-10.7308
▁Grant	-10.7308
▁handsome	-10.7308
▁Jason	-10.7308
▁dropped	-10.7309
▁offense	-10.7309
▁documentary	-10.7311
ONS	-10.7311
▁massive	-10.7311
▁Oliver	-10.7311
▁Simon	-10.7311
▁GOAT	-10.7312
▁Tommy	-10.7312
▁genre	-10.7313
▁rose	-10.7314
▁cold	-10.7322
▁included	-10.7323
▁clap	-10.7324
▁NEWS	-10.7325
▁tail	-10.7327
▁roman	-10.7328
▁Cute	-10.7328
BER	-10.7329
▁suggestion	-10.7329
▁hunt	-10.733
▁bait	-10.7331
▁carry	-10.7333
▁inspirational	-10.7333
▁Over	-10.7339
▁LET	-10.7341
▁via	-10.7345
▁Melo	-10.7353
BC	-10.7363
97	-10.7364
................	-10.7366
ford	-10.7371
wise	-10.7372
▁bloody	-10.7373
▁Mal	-10.7379
▁destroyed	-10.738
tick	-10.739
▁KB	-10.739
▁dressed	-10.7405
▁chan	-10.7407
▁Char	-10.7408
ole	-10.7408
▁tonight	-10.7417
▁below	-10.7418
▁sucked	-10.7418
UCK	-10.7426
No	-10.7428
73	-10.7429
▁angle	-10.7445
He	-10.7459
▁justice	-10.7462
▁Elon	-10.7464
▁separate	-10.7467
uto	-10.7474
WU	-10.7477
▁Last	-10.7477
▁covered	-10.7483
▁Gun	-10.7488
▁apart	-10.7491
▁musical	-10.7492
▁tie	-10.7496
▁Rest	-10.7496
▁cott	-10.751
▁Sun	-10.7527
tries	-10.7537
90	-10.7544
TW	-10.7552
▁curl	-10.7571
)))	-10.7571
▁YA	-10.7588
▁pot	-10.759
:3	-10.759
▁sisters	-10.7601
▁breaking	-10.7603
▁lighting	-10.7605
:18	-10.7608
▁yr	-10.7609
self	-10.7622
▁member	-10.7628
65	-10.7634
▁spiders	-10.7645
-1	-10.7647
gyn	-10.7647
▁nose	-10.765
dad	-10.7654
▁Guy	-10.7674
hhhhhh	-10.7687
▁AF	-10.7712
72	-10.7716
ami	-10.7722
view	-10.7738
▁CR	-10.7745
hl	-10.7749
▁Pop	-10.7754
▁nope	-10.7758
leading	-10.7765
55	-10.7768
ZE	-10.777
sexual	-10.7775
▁Angel	-10.7775
▁Chi	-10.7777
Jesus	-10.7779
channel	-10.7783
DING	-10.7785
▁:-	-10.7788
GET	-10.779
down	-10.779
..............	-10.7798
look	-10.7814
▁multi	-10.7823
como	-10.7825
▁whe	-10.783
101	-10.785
▁pump	-10.7864
hp	-10.7865
gate	-10.7868
▁accident	-10.7868
:50	-10.7871
robably	-10.7891
▁access	-10.7893
▁BIRTHDAY	-10.7893
▁Buzzfeed	-10.7893
▁Chicago	-10.7893
▁Liberal	-10.7893
▁Lmfao	-10.7893
▁Nicole	-10.7893
▁Nintendo	-10.7893
▁SHOULD	-10.7893
▁Swift	-10.7893
▁circle	-10.7893
▁clickbait	-10.7893
▁conversation	-10.7893
▁disappear	-10.7893
▁fidget	-10.7893
▁jealous	-10.7893
▁marriage	-10.7893
▁pronounce	-10.7893
▁tomorrow	-10.7893
▁turtle	-10.7893
▁Pixel	-10.7893
▁radio	-10.7893
▁website	-10.7893
▁Canadian	-10.7893
▁MOVIE	-10.7893
▁fault	-10.7893
▁graphics	-10.7893
▁drugstore	-10.7893
▁Remind	-10.7893
▁Sweet	-10.7893
▁admire	-10.7893
▁author	-10.7893
▁folk	-10.7893
soundcloud	-10.7893
nCAMREN	-10.7893
▁scum	-10.7893
▁coach	-10.7893
▁hug	-10.7893
▁Charlie	-10.7893
▁breakfast	-10.7893
▁jeans	-10.7893
▁sample	-10.7893
▁Feel	-10.7893
▁Musk	-10.7894
▁drama	-10.7894
▁impressive	-10.7894
▁marvel	-10.7894
▁glitter	-10.7894
▁further	-10.7894
▁Oreo	-10.7895
▁disrespectful	-10.7895
▁technology	-10.7895
▁bullet	-10.7895
NAIL	-10.7895
▁Ireland	-10.7895
▁winning	-10.7896
▁shane	-10.7896
▁boobs	-10.7896
▁dread	-10.7898
▁glue	-10.7898
▁drum	-10.7898
▁wipe	-10.7899
▁Shame	-10.7899
▁grew	-10.7899
▁invest	-10.79
▁pipe	-10.79
▁cities	-10.7902
▁2020	-10.7902
▁promote	-10.7902
▁hater	-10.7903
▁Johnny	-10.7904
▁logo	-10.7904
▁Old	-10.7905
▁fancy	-10.7905
▁grace	-10.7905
BRA	-10.7906
▁360	-10.7908
▁Must	-10.7913
▁HOT	-10.7914
▁edge	-10.7915
▁alex	-10.792
▁HIS	-10.7924
69	-10.7925
▁Lele	-10.7926
▁reply	-10.7936
Edit	-10.7938
▁Sky	-10.7939
▁EAT	-10.794
▁rub	-10.7942
▁Back	-10.7944
▁28	-10.7947
▁Les	-10.7955
▁Kind	-10.7955
▁Aww	-10.7956
▁nerd	-10.7961
▁GRA	-10.7961
▁Kate	-10.7971
▁chu	-10.7972
▁hated	-10.7979
▁uni	-10.7986
▁CHE	-10.7988
▁disliked	-10.799
▁within	-10.799
??????	-10.799
arden	-10.7992
▁Gues	-10.8
Fi	-10.8006
▁atom	-10.8016
▁Gay	-10.8016
▁friendly	-10.8017
▁users	-10.8023
---	-10.8032
ngle	-10.8033
▁Muslims	-10.8035
▁deserved	-10.8039
▁22	-10.8045
▁LOVED	-10.805
Lo	-10.8066
▁pero	-10.8083
nDo	-10.8099
▁011	-10.811
ank	-10.8121
ddd	-10.8125
▁psych	-10.8132
▁leav	-10.8137
▁aliens	-10.8153
▁SING	-10.8158
llowed	-10.8167
MB	-10.8173
▁none	-10.8183
▁Mine	-10.8196
sses	-10.8196
Ca	-10.8218
▁wasted	-10.8219
▁cupcakes	-10.8221
hur	-10.8234
▁boot	-10.8236
ggy	-10.8237
▁shoe	-10.8252
▁alien	-10.8254
▁fla	-10.8271
OCK	-10.8271
wasnt	-10.8285
?!?!?	-10.8292
▁BRO	-10.8296
App	-10.8311
XO	-10.8312
▁0:1	-10.8317
powered	-10.8318
▁filming	-10.8329
depend	-10.8336
iggle	-10.8339
ASH	-10.8345
OF	-10.8356
▁improve	-10.8358
OD	-10.8361
rica	-10.8366
▁Bear	-10.8387
▁sam	-10.8394
And	-10.8399
44	-10.8424
loud	-10.8445
hub	-10.8446
▁stocks	-10.8446
▁annoy	-10.8448
white	-10.8449
RIP	-10.8453
used	-10.8453
▁solo	-10.8459
cash	-10.8461
LAN	-10.8464
▁FU	-10.8465
with	-10.8474
EEN	-10.8474
▁ate	-10.8479
▁incredibl	-10.8493
function	-10.851
ordered	-10.8512
▁ALWAYS	-10.8518
▁Anthony	-10.8518
▁Hilarious	-10.8518
▁Obvious	-10.8518
▁PERFECT	-10.8518
▁Pokemon	-10.8518
▁bathroom	-10.8518
▁behavior	-10.8518
▁chemical	-10.8518
▁creature	-10.8518
▁disagree	-10.8518
▁employee	-10.8518
▁excellent	-10.8518
▁faith	-10.8518
▁hundred	-10.8518
▁increase	-10.8518
▁influence	-10.8518
▁informative	-10.8518
▁magazine	-10.8518
▁ourselves	-10.8518
▁physics	-10.8518
▁pomegranate	-10.8518
▁privilege	-10.8518
▁religion	-10.8518
▁strength	-10.8518
▁traitor	-10.8518
Floyd	-10.8518
▁School	-10.8518
▁conservative	-10.8518
▁french	-10.8518
▁smoking	-10.8518
▁AGAIN	-10.8518
▁receive	-10.8518
▁Fonda	-10.8518
▁buddy	-10.8518
▁vdeo	-10.8518
▁device	-10.8518
▁solution	-10.8518
▁target	-10.8518
nLike	-10.8518
▁Israel	-10.8518
▁Sarah	-10.8518
▁contour	-10.8518
▁quote	-10.8518
▁battle	-10.8518
YIAYbasic	-10.8518
dvance	-10.8518
▁mountain	-10.8518
▁unicorn	-10.8518
▁YEAH	-10.8518
▁memory	-10.8518
▁WWE	-10.8518
▁Gabbie	-10.8518
▁Peace	-10.8518
▁cowboy	-10.8519
▁understood	-10.8519
▁Definitely	-10.8519
▁Kevin	-10.8519
▁angry	-10.8519
▁moose	-10.8519
jajaja	-10.852
▁pause	-10.852
▁Blue	-10.852
▁position	-10.852
▁competition	-10.852
▁Warner	-10.852
▁sugar	-10.852
▁teenage	-10.8521
▁mejor	-10.8521
▁Jeff	-10.8521
▁string	-10.8521
▁silly	-10.8522
▁jerk	-10.8522
▁smh	-10.8522
▁European	-10.8522
▁introduce	-10.8522
▁assume	-10.8522
▁delete	-10.8523
▁effective	-10.8524
86	-10.8524
▁JOB	-10.8525
▁Mario	-10.8526
▁offended	-10.8526
▁presentation	-10.8527
▁constantly	-10.8529
▁warm	-10.853
▁Robin	-10.8531
▁Parker	-10.8531
turn	-10.8533
▁Click	-10.8533
▁Mind	-10.8533
▁Blake	-10.8533
▁Long	-10.8534
▁Chef	-10.8535
▁amaze	-10.8536
▁layer	-10.8539
▁Colin	-10.8539
▁shave	-10.8539
▁Uber	-10.8543
▁properly	-10.8544
▁val	-10.8544
▁four	-10.8544
▁portra	-10.8544
▁saving	-10.8545
▁Other	-10.8548
▁miles	-10.8549
▁Noah	-10.855
▁Name	-10.855
▁charger	-10.8558
▁army	-10.8558
▁boss	-10.8562
▁LOT	-10.8565
acial	-10.857
▁bezel	-10.8572
▁cure	-10.8574
IDE	-10.8578
▁producer	-10.8581
▁eu	-10.8581
PH	-10.8582
▁Total	-10.8591
▁wit	-10.8594
▁AHHHH	-10.8597
▁naturally	-10.8597
▁NF	-10.8598
nLove	-10.8601
▁failed	-10.8601
ju	-10.8603
▁eff	-10.8608
▁nuts	-10.8608
▁Ver	-10.8609
▁collect	-10.8616
▁sake	-10.8617
▁pound	-10.8618
▁thin	-10.8624
▁fart	-10.8626
▁rolling	-10.8629
who	-10.8638
▁fur	-10.8641
zone	-10.8643
▁Dad	-10.8649
▁eyebrows	-10.8651
▁DIS	-10.8655
▁SHI	-10.8667
▁painful	-10.8676
▁dra	-10.8681
▁burning	-10.8681
RUS	-10.8684
▁Kat	-10.8684
▁Lil	-10.8684
▁hall	-10.8707
away	-10.8719
▁morons	-10.8723
▁bike	-10.8737
iden	-10.8742
▁bite	-10.8743
▁Doesn	-10.8755
night	-10.8762
▁Up	-10.8783
fire	-10.8806
▁shoulder	-10.8825
▁Pls	-10.8834
▁Down	-10.8846
▁ugh	-10.8853
igo	-10.8858
hog	-10.886
eye	-10.8898
▁magical	-10.8905
:54	-10.8909
aron	-10.8909
▁core	-10.8921
▁rules	-10.8923
▁lyric	-10.8925
▁sum	-10.8931
name	-10.8951
hmm	-10.8983
OOO	-10.8994
logical	-10.9
EF	-10.9005
59	-10.9012
NNN	-10.9014
▁Bell	-10.9014
round	-10.9031
14	-10.9048
AAAAA	-10.9052
:08	-10.9055
0,000	-10.9057
uuuu	-10.9063
ption	-10.9066
▁199	-10.9068
▁tip	-10.909
:39	-10.9092
▁stole	-10.9103
▁centr	-10.9117
STER	-10.9144
ister	-10.9146
▁invite	-10.9147
▁trigger	-10.915
▁Bad	-10.9154
power	-10.9157
Youtube	-10.9158
imo	-10.9162
house	-10.9165
screen	-10.9182
why	-10.9182
▁champion	-10.9184
▁Build	-10.9185
▁Colombia	-10.9185
▁Country	-10.9185
▁TRUMP	-10.9185
▁Walmart	-10.9185
▁Washington	-10.9185
▁celebrity	-10.9185
▁chemistry	-10.9185
▁feminist	-10.9185
▁impossible	-10.9185
▁ingredient	-10.9185
▁memories	-10.9185
▁neigh	-10.9185
▁physical	-10.9185
▁savage	-10.9185
▁uncomfortable	-10.9185
▁violence	-10.9185
SUBSCRIBE	-10.9185
▁MONEY	-10.9185
▁Vietnam	-10.9185
▁WOULD	-10.9185
▁compliment	-10.9185
▁disorder	-10.9185
▁relax	-10.9185
nHOLA	-10.9185
▁nonsense	-10.9185
▁Bruno	-10.9185
▁fetish	-10.9185
▁disaster	-10.9185
▁predict	-10.9185
▁cousin	-10.9185
▁HARD	-10.9185
▁cringy	-10.9185
▁strip	-10.9185
▁Women	-10.9185
▁PLAY	-10.9185
▁While	-10.9185
▁complex	-10.9185
▁avoid	-10.9185
▁concern	-10.9185
▁medical	-10.9185
▁perhaps	-10.9185
▁lashes	-10.9186
▁Buy	-10.9186
▁COM	-10.9186
▁robot	-10.9186
▁damage	-10.9186
▁frog	-10.9187
▁Turn	-10.9187
▁reverse	-10.9187
▁disease	-10.9187
▁failure	-10.9188
▁shove	-10.9188
▁Selena	-10.9189
▁SLAY	-10.919
▁morty	-10.919
▁bored	-10.919
▁toilet	-10.919
▁development	-10.9191
▁unlike	-10.9191
▁prayers	-10.9191
▁trap	-10.9192
▁immediately	-10.9192
▁True	-10.9193
▁idol	-10.9193
▁blend	-10.9193
▁china	-10.9194
▁Today	-10.9194
▁Liam	-10.9196
▁rail	-10.9199
▁setting	-10.9201
▁TAKE	-10.9201
▁Fenty	-10.9201
filled	-10.9205
▁jail	-10.9209
idence	-10.9209
▁shine	-10.9214
▁tight	-10.9216
▁triggered	-10.9219
▁skip	-10.9221
▁Porg	-10.9222
▁theater	-10.9222
▁hotel	-10.9227
▁Nicki	-10.9227
▁rise	-10.9232
▁bass	-10.9233
▁exit	-10.9234
LAST	-10.9234
▁Want	-10.9235
▁Joey	-10.9237
nPlease	-10.9238
▁Pure	-10.9239
▁Shay	-10.9241
▁Mmm	-10.9241
berg	-10.9247
▁kicked	-10.9247
▁End	-10.9252
▁useless	-10.9252
nThank	-10.9252
▁praying	-10.9258
ular	-10.9267
DW	-10.9268
▁tank	-10.9271
▁losing	-10.9272
▁sang	-10.9276
▁marketing	-10.9281
▁blowing	-10.9282
▁ASS	-10.9287
▁identi	-10.9294
▁spinn	-10.9295
▁Seem	-10.9302
uuuuuu	-10.9308
made	-10.9315
▁Young	-10.9319
▁plann	-10.9324
nThey	-10.9324
▁DM	-10.9325
▁honesty	-10.933
▁Mil	-10.9336
▁THOUGH	-10.9347
▁diy	-10.9366
▁cookies	-10.9373
21	-10.9383
▁weapons	-10.9385
▁twins	-10.9398
▁Bla	-10.9398
iki	-10.9402
▁Liv	-10.9403
▁assholes	-10.9404
▁students	-10.9404
pop	-10.9405
▁kat	-10.9405
▁Ken	-10.9409
▁donut	-10.9411
utm	-10.9422
▁BY	-10.9432
WAY	-10.9433
▁kar	-10.9437
sssssss	-10.9439
▁yay	-10.9443
▁fac	-10.9452
▁pee	-10.9456
▁goat	-10.9468
Jk	-10.9468
66	-10.9473
▁woo	-10.9475
▁Hard	-10.9523
▁soap	-10.957
85	-10.9577
▁Scar	-10.9594
Jo	-10.9594
▁Fat	-10.9595
ario	-10.9604
fy	-10.9606
VING	-10.9607
▁rac	-10.9625
▁vocal	-10.9632
YYY	-10.9687
have	-10.9687
Inter	-10.9729
▁shower	-10.9732
▁xo	-10.9735
ahahaha	-10.9738
:53	-10.9743
▁aww	-10.9752
▁detail	-10.9754
:31	-10.9757
▁Carli	-10.9777
poo	-10.9778
load	-10.9779
87	-10.9783
▁soooooo	-10.9791
hana	-10.9808
▁Nu	-10.9811
▁3:4	-10.9828
Love	-10.9851
▁Run	-10.987
▁Simpl	-10.9871
▁creep	-10.9874
ense	-10.9879
▁Sooo	-10.9886
tards	-10.9889
▁bull	-10.9889
cause	-10.9893
▁spec	-10.9894
wei	-10.9894
▁comfort	-10.9896
▁cult	-10.9899
▁SUPER	-10.9899
▁laptop	-10.9899
▁pedophile	-10.9899
▁supremacist	-10.9899
cakebookquiz	-10.9899
nEveryone	-10.9899
▁Excellent	-10.9899
▁Thrones	-10.9899
▁combination	-10.9899
▁confidence	-10.9899
▁elevator	-10.9899
▁ignorant	-10.9899
▁lmfao	-10.9899
▁muslim	-10.9899
▁offensive	-10.9899
▁recognition	-10.9899
▁reflect	-10.9899
▁software	-10.9899
▁Franco	-10.9899
▁LMFAO	-10.9899
▁PROUD	-10.9899
▁gravity	-10.9899
▁parody	-10.9899
Dragon	-10.9899
▁Hugh	-10.9899
▁Keith	-10.9899
▁Wengie	-10.9899
Brasil	-10.9899
▁NBA	-10.9899
▁silence	-10.9899
▁clever	-10.9899
▁SAID	-10.9899
▁comb	-10.9899
▁Death	-10.9899
▁Michelle	-10.9899
▁square	-10.9899
▁Potter	-10.9899
▁Idiot	-10.9899
▁Tamar	-10.9899
▁LITT	-10.9899
▁perspective	-10.9899
▁Prayer	-10.9899
▁ultim	-10.9899
▁subtle	-10.9899
▁Islam	-10.9899
▁purple	-10.9899
▁pitch	-10.9899
▁drown	-10.9899
▁nasty	-10.9899
▁surface	-10.99
▁professional	-10.99
▁clothing	-10.99
▁prince	-10.99
▁horse	-10.99
▁intended	-10.99
▁location	-10.99
▁north	-10.9901
▁goodbye	-10.9901
▁Review	-10.9901
▁grandpa	-10.9901
▁September	-10.9901
▁fought	-10.9901
▁beach	-10.9901
▁bowl	-10.9902
▁libtard	-10.9902
▁indeed	-10.9902
▁comfortable	-10.9902
▁junk	-10.9903
ACE	-10.9904
▁2018	-10.9904
▁blade	-10.9904
▁affordable	-10.9904
▁shout	-10.9904
▁kneel	-10.9905
▁taco	-10.9905
▁rough	-10.9907
▁Jamie	-10.9908
▁YEAR	-10.9908
▁WAITING	-10.991
▁dump	-10.991
▁Jessie	-10.9912
▁warrior	-10.9913
▁worried	-10.9914
OUS	-10.9915
▁active	-10.9915
▁Blade	-10.9915
▁Yep	-10.9916
EATH	-10.9916
boo	-10.9917
▁voz	-10.9918
▁pair	-10.9918
▁Night	-10.9918
▁golden	-10.9918
▁Gold	-10.9918
▁rapist	-10.9919
odgers	-10.9921
attractive	-10.9922
▁harm	-10.9923
▁thus	-10.9924
▁Lilly	-10.9926
▁winter	-10.9928
▁Comment	-10.993
shirt	-10.993
▁Full	-10.9931
music	-10.9933
Far	-10.9935
organ	-10.9935
▁useful	-10.9936
▁writers	-10.9938
thank	-10.9939
▁Satur	-10.9939
▁premi	-10.994
▁tryna	-10.9943
▁melt	-10.9943
▁Add	-10.9945
▁prob	-10.9945
▁quickly	-10.9945
from	-10.9946
▁edited	-10.9946
▁gap	-10.9946
▁Beth	-10.9954
▁Umm	-10.9956
▁Dope	-10.9958
▁Fish	-10.9963
▁letter	-10.9965
▁Bella	-10.997
mosa	-10.997
▁Act	-10.997
▁protesting	-10.9974
▁data	-10.9979
▁VR	-10.998
▁porg	-10.9983
hun	-10.9983
▁drawing	-10.9986
▁Hand	-10.999
▁Gar	-10.9992
▁boat	-10.9992
▁lower	-11
▁pur	-11.0004
▁Kris	-11.0007
▁City	-11.0007
tract	-11.0009
ador	-11.001
KIN	-11.0013
▁sink	-11.0014
▁flower	-11.0016
▁six	-11.0018
good	-11.0029
rupt	-11.0039
ITE	-11.0042
▁dri	-11.0042
▁goodness	-11.0046
▁pc	-11.0048
▁Hero	-11.0054
make	-11.0058
▁dun	-11.0062
▁dab	-11.0064
▁EU	-11.0065
:59	-11.0068
▁drinking	-11.0081
▁pad	-11.0083
ouch	-11.0091
▁Bring	-11.0093
MOR	-11.0096
77	-11.0096
▁blessing	-11.0103
▁blown	-11.0111
jake	-11.0115
DS	-11.0118
▁cutt	-11.0123
oooooooooo	-11.0137
▁Pan	-11.0152
:14	-11.0168
▁DC	-11.017
▁coat	-11.0173
▁dam	-11.0177
▁Live	-11.0184
▁speaker	-11.0186
held	-11.019
▁explaining	-11.019
planned	-11.0198
:36	-11.02
iPhone	-11.0201
rb	-11.0204
OUT	-11.0233
UB	-11.024
▁asses	-11.0253
▁dish	-11.0257
:07	-11.0284
▁Amy	-11.0288
▁spell	-11.0327
cycle	-11.033
10000	-11.0333
signed	-11.036
YOU	-11.0366
meter	-11.037
▁German	-11.0371
PU	-11.0372
:03	-11.0383
xl	-11.0452
▁Van	-11.0462
▁map	-11.0491
:04	-11.0503
picking	-11.0512
▁Tea	-11.0516
rina	-11.0523
ITY	-11.0524
Who	-11.054
▁actress	-11.0544
poll	-11.057
▁mc	-11.0574
zzz	-11.0601
aaaaaaaa	-11.0608
lag	-11.0612
SON	-11.0615
▁yasss	-11.0617
▁solve	-11.0634
▁piss	-11.0647
:12	-11.065
▁evolution	-11.0653
▁tend	-11.0654
▁potato	-11.0658
▁educat	-11.0664
PLE	-11.0664
▁Ohh	-11.0666
▁BIG	-11.0668
Snapchat	-11.0668
▁College	-11.0668
▁JESUS	-11.0668
▁Lindsey	-11.0668
▁PEOPLE	-11.0668
▁Samantha	-11.0668
▁announce	-11.0668
▁argument	-11.0668
▁authentic	-11.0668
▁bacteria	-11.0668
▁brainwash	-11.0668
▁context	-11.0668
▁cosmetic	-11.0668
▁diamond	-11.0668
▁eventually	-11.0668
▁families	-11.0668
▁galaxy	-11.0668
▁global	-11.0668
▁hypocrite	-11.0668
▁intelligent	-11.0668
▁pokemon	-11.0668
▁subtitle	-11.0668
▁taylor	-11.0668
▁television	-11.0668
▁vampire	-11.0668
▁yourselves	-11.0668
▁Cheryl	-11.0668
▁Crazy	-11.0668
▁England	-11.0668
▁request	-11.0668
▁transition	-11.0668
▁tweet	-11.0668
labama	-11.0668
▁Beauty	-11.0668
▁Bisping	-11.0668
▁Prince	-11.0668
▁Voice	-11.0668
▁noodle	-11.0668
▁hidden	-11.0668
▁Beyonc	-11.0668
▁UFC	-11.0668
▁Silver	-11.0668
▁volume	-11.0668
▁capture	-11.0668
▁skincare	-11.0668
Believe	-11.0668
▁Sometimes	-11.0668
▁divide	-11.0668
▁Favorit	-11.0668
▁Planet	-11.0668
▁mature	-11.0668
▁burger	-11.0668
▁northern	-11.0668
▁START	-11.0668
▁Tesla	-11.0669
nWhy	-11.0669
▁GAME	-11.0669
▁alright	-11.0669
▁baseball	-11.0669
▁Dislike	-11.0669
▁shoutout	-11.067
▁advertisement	-11.067
▁sentence	-11.067
▁DIY	-11.067
▁contract	-11.0671
▁Somebody	-11.0671
▁Spain	-11.0671
▁cancin	-11.0671
▁Something	-11.0671
▁Coyote	-11.0671
▁plug	-11.0671
▁jelly	-11.0671
▁Anyway	-11.0672
▁blur	-11.0672
▁grey	-11.0673
▁10/10	-11.0673
▁wheel	-11.0673
▁2.0	-11.0675
▁unlock	-11.0675
▁ROCK	-11.0675
▁FACE	-11.0677
▁attitude	-11.0677
▁fries	-11.0677
▁motor	-11.0677
▁OVER	-11.0677
▁flash	-11.0678
▁glow	-11.0678
▁coverage	-11.0678
▁BBC	-11.0679
▁eh	-11.0679
▁CGI	-11.0679
▁frick	-11.0679
▁paul	-11.068
▁semi	-11.0681
▁sexist	-11.0682
▁cancel	-11.0683
▁steam	-11.0684
▁Josh	-11.0684
▁Dead	-11.0685
toxic	-11.0688
▁primer	-11.069
▁haul	-11.0692
▁Becky	-11.0693
▁Party	-11.0693
▁Sell	-11.0694
▁0:0	-11.0695
pies	-11.0699
▁sales	-11.0699
▁Toni	-11.07
▁movement	-11.0701
▁Jam	-11.0703
agan	-11.0704
appropriate	-11.0709
▁grass	-11.071
▁Eith	-11.071
▁Vince	-11.0711
▁customer	-11.0712
oct	-11.0712
▁invited	-11.0712
▁Heart	-11.0713
▁Sale	-11.0713
▁Rud	-11.0715
▁connected	-11.0716
▁slip	-11.0718
▁cock	-11.072
bone	-11.072
▁Za	-11.0721
▁warming	-11.0728
LER	-11.0729
▁cheaper	-11.073
▁scr	-11.0734
▁stain	-11.0737
▁belt	-11.074
▁featured	-11.0747
First	-11.0761
baby	-11.078
▁Brit	-11.0786
aban	-11.08
▁chat	-11.0802
▁reporter	-11.0806
▁picked	-11.0818
▁sleeping	-11.0826
details	-11.0827
MORE	-11.0827
rix	-11.0833
keep	-11.0835
▁YESSSS	-11.0838
▁0:4	-11.0848
spoiled	-11.0858
also	-11.0864
gf	-11.0866
▁$10	-11.0875
▁meeting	-11.0878
▁Cry	-11.089
▁VIDEOS	-11.089
ference	-11.0893
▁PC	-11.0894
nOh	-11.0895
AAAA	-11.0914
▁Desi	-11.0936
▁mr	-11.0939
hhhhhhh	-11.0944
............	-11.0945
nnnn	-11.0955
yard	-11.0961
▁Del	-11.0967
▁Soooo	-11.0972
Man	-11.0977
((	-11.101
elo	-11.1024
▁kno	-11.1037
audi	-11.1044
▁400	-11.11
:26	-11.1118
▁freeze	-11.115
▁esto	-11.1152
▁300	-11.1153
LOOKS	-11.1186
inner	-11.1196
▁$2	-11.1199
▁luv	-11.121
▁Mor	-11.1216
▁Lee	-11.1221
▁student	-11.1231
▁asshole	-11.1237
▁moron	-11.1251
▁symbol	-11.1265
▁Sho	-11.1271
Thought	-11.1275
▁abus	-11.1275
right	-11.1288
▁HAHA	-11.1302
▁Carl	-11.1308
▁Won	-11.1325
anti	-11.1338
RL	-11.134
hol	-11.1341
▁Mul	-11.1341
LC	-11.135
▁uma	-11.137
oster	-11.1371
▁instrument	-11.1375
▁dimension	-11.1383
Roll	-11.1396
▁Def	-11.1399
:32	-11.1404
▁rais	-11.1408
ntil	-11.1424
hab	-11.1433
ANCE	-11.1441
▁slim	-11.1444
▁nah	-11.1475
▁Park	-11.149
▁achieve	-11.1495
▁express	-11.1498
apolog	-11.1498
▁breast	-11.1501
▁explosion	-11.1501
▁microwave	-11.1501
▁particular	-11.1501
ourtney	-11.1501
▁COULD	-11.1501
▁DUDE	-11.1501
▁Fergie	-11.1501
▁Jaclyn	-11.1501
▁Juggalo	-11.1501
▁Melbourne	-11.1501
▁Oprah	-11.1501
▁Trevor	-11.1501
▁Venezuela	-11.1501
▁aesthetic	-11.1501
▁analysis	-11.1501
▁assault	-11.1501
▁awhile	-11.1501
▁benefit	-11.1501
▁criminal	-11.1501
▁definition	-11.1501
▁disgrace	-11.1501
▁election	-11.1501
▁explanation	-11.1501
▁hybrid	-11.1501
▁juggalo	-11.1501
▁lesbian	-11.1501
▁nutshell	-11.1501
▁pepper	-11.1501
▁relevant	-11.1501
▁respond	-11.1501
McDonald	-11.1501
XXX	-11.1501
▁Network	-11.1501
▁Science	-11.1501
▁explor	-11.1501
▁gadget	-11.1501
▁grateful	-11.1501
▁superhero	-11.1501
▁waffle	-11.1501
▁sketch	-11.1501
▁Terror	-11.1501
nWhere	-11.1501
▁steak	-11.1501
▁segment	-11.1502
▁Weezer	-11.1502
▁bullied	-11.1502
▁Allison	-11.1502
▁Trash	-11.1502
▁border	-11.1502
:09	-11.1502
▁LORD	-11.1502
▁Talent	-11.1502
▁Niall	-11.1502
▁balloon	-11.1502
▁spicy	-11.1502
▁TALK	-11.1502
▁SAME	-11.1502
▁Spider	-11.1502
▁asleep	-11.1502
▁overrated	-11.1502
▁Bitch	-11.1502
▁KEEP	-11.1502
▁Question	-11.1502
▁infect	-11.1502
▁gaming	-11.1502
▁subbed	-11.1502
Views	-11.1502
quifax	-11.1502
STILL	-11.1502
▁scale	-11.1502
mendment	-11.1502
▁keyboard	-11.1502
WARD	-11.1502
▁Ingrid	-11.1502
nLet	-11.1502
▁intense	-11.1502
▁earned	-11.1502
▁humble	-11.1502
▁Jessica	-11.1502
▁roast	-11.1503
▁ASAP	-11.1503
▁Props	-11.1503
▁Runner	-11.1503
yiay	-11.1503
▁shift	-11.1503
MILLION	-11.1504
▁spark	-11.1504
▁precious	-11.1504
▁fetch	-11.1504
▁decorat	-11.1504
▁root	-11.1505
▁Btw	-11.1505
▁forgotten	-11.1505
▁merch	-11.1505
▁crappy	-11.1505
▁spray	-11.1506
▁acne	-11.1506
▁Marble	-11.1506
▁package	-11.1506
▁Alien	-11.1506
▁lowkey	-11.1506
▁airline	-11.1506
▁measure	-11.1506
▁:')	-11.1506
▁furry	-11.1507
▁lime	-11.1507
▁Sammy	-11.1507
EACH	-11.1507
▁tape	-11.1508
▁NYC	-11.1508
▁ramen	-11.1508
▁quiet	-11.1509
▁Strange	-11.1509
▁Carson	-11.1509
▁otherwise	-11.1509
▁scientist	-11.1509
▁Jeez	-11.1509
▁gym	-11.151
▁2049	-11.151
▁pride	-11.151
▁lord	-11.1511
▁swim	-11.1512
▁Drop	-11.1513
▁BTW	-11.1513
▁priceless	-11.1514
▁Vox	-11.1514
▁fold	-11.1515
▁comeback	-11.1515
▁Although	-11.1515
$$	-11.1515
▁KID	-11.1516
▁shake	-11.1516
ivity	-11.1516
▁upgrade	-11.1516
▁buff	-11.1517
▁chop	-11.1517
▁recreat	-11.1518
GB	-11.1518
▁Luv	-11.1518
▁pew	-11.1518
320	-11.1519
▁nuke	-11.1519
▁Andrew	-11.1522
▁commentary	-11.1522
▁4:4	-11.1523
▁twin	-11.1526
▁Light	-11.1526
▁STU	-11.1527
▁trial	-11.1529
insert	-11.1529
▁discovered	-11.153
▁Milo	-11.1531
▁Making	-11.1532
▁brows	-11.1532
▁pool	-11.1532
ville	-11.1533
▁guest	-11.1534
▁duck	-11.1534
▁PUT	-11.1534
▁yelling	-11.1536
▁fox	-11.1537
▁latte	-11.1538
▁laughter	-11.1539
▁Vol	-11.154
▁directly	-11.1541
▁bully	-11.1541
▁Tina	-11.1542
▁alleg	-11.1545
yyyyyyy	-11.1556
ably	-11.156
▁successful	-11.156
▁lele	-11.1561
▁Lost	-11.1564
▁slime	-11.1566
▁Nope	-11.1568
▁Simple	-11.157
oml	-11.157
slide	-11.1575
Code	-11.1577
▁produced	-11.1583
▁carrie	-11.1583
amine	-11.1585
▁HOLO	-11.1588
▁teaching	-11.1591
lips	-11.1594
▁sky	-11.1599
ista	-11.1599
▁stronger	-11.1604
▁cable	-11.1616
talian	-11.1617
▁stolen	-11.1623
▁Camp	-11.1636
▁Saw	-11.1642
:25	-11.1648
▁ram	-11.1651
▁fag	-11.1652
▁tall	-11.1652
▁MK	-11.1654
istance	-11.1655
150	-11.1658
▁TOP	-11.1664
68	-11.1666
ctual	-11.1666
stone	-11.1667
google	-11.1669
▁204	-11.167
Maybe	-11.1673
America	-11.1674
Great	-11.1676
please	-11.1678
▁binge	-11.1681
76	-11.1683
because	-11.1683
Good	-11.1683
▁lik	-11.1696
Every	-11.1711
▁continu	-11.1714
NOT	-11.1721
▁comme	-11.1728
▁Milk	-11.1739
rish	-11.1747
hopefully	-11.1748
▁grave	-11.1753
bbie	-11.179
HEY	-11.1792
▁hid	-11.1793
▁dro	-11.18
JA	-11.1857
UH	-11.1865
shit	-11.187
aaaaaaa	-11.1873
▁PRE	-11.1885
62	-11.1896
▁lib	-11.1904
ellow	-11.1928
▁hum	-11.193
worthy	-11.1931
▁Zac	-11.1939
▁HATE	-11.1942
▁cancion	-11.195
matic	-11.1952
Qu	-11.1954
LIE	-11.1955
cket	-11.1956
allows	-11.196
▁tast	-11.1962
▁Wood	-11.1966
nDi	-11.1971
▁cave	-11.1984
cation	-11.201
2)	-11.2015
Bron	-11.2024
locks	-11.2031
▁emotion	-11.2067
▁$50	-11.2076
lllll	-11.2085
HAD	-11.2098
▁fuk	-11.2098
▁freakin	-11.2099
long	-11.2106
:02	-11.2129
▁Rap	-11.2135
▁skill	-11.2139
▁weapon	-11.214
▁Boi	-11.2141
▁victim	-11.2142
:28	-11.215
though	-11.2204
hella	-11.2212
stop	-11.2216
▁hahah	-11.2219
▁fea	-11.2235
ULL	-11.2258
AA	-11.227
OOL	-11.2281
▁exc	-11.2286
game	-11.2287
▁Hmm	-11.2294
▁releas	-11.2297
▁Crea	-11.2298
700	-11.2324
▁inject	-11.2345
cord	-11.2364
▁south	-11.2367
nnnnnn	-11.2377
litter	-11.2391
▁Honest	-11.2392
▁Sea	-11.2394
▁GUY	-11.2397
▁prime	-11.2397
▁Step	-11.2401
OOT	-11.2403
▁Europe	-11.2406
▁attract	-11.2407
media	-11.2407
ollywood	-11.2407
▁progress	-11.2408
▁capital	-11.241
▁electro	-11.241
practical	-11.2411
▁guarantee	-11.2411
▁traditional	-11.2411
▁unfortunate	-11.2411
Episode	-11.2411
lluminati	-11.2411
▁CLICK	-11.2411
▁FAVORITE	-11.2411
▁FUNNY	-11.2411
▁Incredibl	-11.2411
▁Instead	-11.2411
▁Mirror	-11.2411
▁POWER	-11.2411
▁PRETTY	-11.2411
▁Pittsburgh	-11.2411
▁Pumpkin	-11.2411
▁Victoria	-11.2411
▁advantage	-11.2411
▁algorithm	-11.2411
▁batteries	-11.2411
▁concealer	-11.2411
▁conclusion	-11.2411
▁environment	-11.2411
▁exercise	-11.2411
▁explode	-11.2411
▁flood	-11.2411
▁helicopter	-11.2411
▁insurance	-11.2411
▁mascara	-11.2411
▁motivate	-11.2411
▁opposite	-11.2411
▁podcast	-11.2411
▁politician	-11.2411
▁rainbow	-11.2411
▁refreshing	-11.2411
▁sensitive	-11.2411
▁shadow	-11.2411
Greetings	-11.2411
▁BETTER	-11.2411
▁Bunny	-11.2411
▁FINALLY	-11.2411
▁GETTING	-11.2411
▁Heaven	-11.2411
▁Nigga	-11.2411
▁Number	-11.2411
▁Quinta	-11.2411
▁bridge	-11.2411
▁chorus	-11.2411
▁interpret	-11.2411
▁nowadays	-11.2411
▁scanner	-11.2411
▁wrestl	-11.2411
▁Colleen	-11.2411
▁HYPE	-11.2411
▁Twins	-11.2411
▁invented	-11.2411
▁unfair	-11.2411
▁idubb	-11.2411
▁treasure	-11.2411
▁Family	-11.2411
▁goddess	-11.2411
▁BBQ	-11.2411
▁formula	-11.2411
▁realistic	-11.2411
▁Kyrie	-11.2411
▁National	-11.2411
▁VOICE	-11.2411
▁bashing	-11.2411
▁intention	-11.2411
▁poison	-11.2411
▁sphere	-11.2411
▁France	-11.2411
▁expert	-11.2411
▁profile	-11.2411
▁swift	-11.2411
▁SICK	-11.2411
▁latino	-11.2411
▁appeal	-11.2411
OMFG	-11.2411
▁Clear	-11.2411
▁funnier	-11.2411
TTTTT	-11.2411
▁prepare	-11.2411
▁bacon	-11.2411
▁Reddit	-11.2411
▁Armie	-11.2411
▁destruction	-11.2411
▁carbon	-11.2411
▁Cohen	-11.2411
hakira	-11.2411
▁NAME	-11.2411
▁shark	-11.2411
▁corrupt	-11.2411
▁Smart	-11.2411
▁depressing	-11.2411
▁electronic	-11.2411
▁generic	-11.2411
▁defeat	-11.2411
▁smartphone	-11.2411
▁celebrate	-11.2411
▁nazi	-11.2411
▁smack	-11.2411
▁CRAP	-11.2411
▁bedroom	-11.2411
ecrae	-11.2411
PHONE	-11.2411
▁Beck	-11.2412
▁shallow	-11.2412
▁Trini	-11.2412
▁:'(	-11.2412
▁Bryan	-11.2412
Trust	-11.2412
▁Sunday	-11.2412
▁Philippines	-11.2412
▁roof	-11.2412
▁EVERYONE	-11.2412
▁snack	-11.2412
▁Mormon	-11.2412
▁FIRE	-11.2412
▁teaser	-11.2413
▁Monday	-11.2413
▁interact	-11.2413
▁Anwar	-11.2413
▁texture	-11.2413
▁warning	-11.2413
▁chair	-11.2413
▁relative	-11.2413
▁Brown	-11.2413
▁Terry	-11.2413
▁appearance	-11.2413
▁tongue	-11.2413
▁plain	-11.2414
▁sync	-11.2414
▁relatable	-11.2414
▁joking	-11.2414
▁changing	-11.2414
▁Thai	-11.2414
▁Dutch	-11.2415
▁compete	-11.2415
▁COLL	-11.2415
▁scam	-11.2415
▁Cubs	-11.2416
▁accus	-11.2416
▁NBC	-11.2416
▁Part	-11.2416
▁Subscribers	-11.2417
▁Morgan	-11.2417
▁suddenly	-11.2417
▁combine	-11.2417
▁Shann	-11.2417
▁mount	-11.2418
SQUA	-11.2418
▁React	-11.2418
▁leak	-11.2418
▁edition	-11.2418
▁COOL	-11.2418
nGet	-11.2419
▁oppress	-11.2419
▁bread	-11.242
▁woke	-11.242
▁weekend	-11.242
▁email	-11.242
▁Spicer	-11.2422
▁selfish	-11.2422
▁washed	-11.2422
eadpool	-11.2423
▁lava	-11.2423
▁Room	-11.2423
▁darkness	-11.2423
▁potatoes	-11.2423
VERY	-11.2423
▁Finn	-11.2424
▁supp	-11.2425
▁sword	-11.2427
▁witch	-11.2427
▁thru	-11.2428
▁DOES	-11.2429
▁hahahaha	-11.243
nWell	-11.243
▁SUB	-11.243
▁punches	-11.243
▁shall	-11.2431
▁WELL	-11.2431
▁turb	-11.2432
▁confirmed	-11.2432
▁Trek	-11.2432
▁broad	-11.2432
▁Lava	-11.2432
▁1,000	-11.2433
PORT	-11.2433
▁Beach	-11.2433
▁spoiler	-11.2433
▁Help	-11.2434
▁styl	-11.2435
▁Coco	-11.2435
▁Dark	-11.2436
wink	-11.2436
▁imagin	-11.2437
▁Huh	-11.2437
▁Tony	-11.2439
eazy	-11.244
▁RUN	-11.2441
▁russian	-11.2443
▁Crap	-11.2443
00$	-11.2444
▁BTS	-11.2445
▁DONT	-11.2446
▁creation	-11.2452
▁East	-11.2453
▁someday	-11.2454
▁solved	-11.2456
Money	-11.2457
▁seven	-11.2459
▁correctly	-11.2459
▁Lex	-11.2463
▁lean	-11.2463
▁rear	-11.2464
▁pumped	-11.2465
▁bien	-11.2466
▁Book	-11.247
▁donkey	-11.2472
Things	-11.2472
▁Xx	-11.2474
▁kneeling	-11.2474
▁affected	-11.2475
thug	-11.248
▁certainly	-11.2488
AKING	-11.2488
▁copie	-11.2497
▁=)	-11.2498
▁stealing	-11.2499
▁WERE	-11.2513
▁normally	-11.2517
▁roller	-11.2518
▁pup	-11.253
▁closer	-11.2532
▁sight	-11.2554
arious	-11.2562
Thank	-11.2573
▁2:4	-11.2579
▁emo	-11.2611
▁desd	-11.2615
ppp	-11.2615
▁arse	-11.2623
panic	-11.2624
▁HAHAHAHA	-11.263
grade	-11.2639
product	-11.264
chester	-11.2643
MW	-11.2654
▁scare	-11.2658
juice	-11.2658
▁Cole	-11.2661
million	-11.2673
New	-11.2679
▁breathe	-11.2681
THIS	-11.2682
FUCK	-11.2683
plus	-11.2688
▁Marqu	-11.2695
▁dancer	-11.2699
water	-11.2704
ancy	-11.2713
SION	-11.2716
owl	-11.2722
team	-11.2737
▁Linki	-11.2744
fish	-11.2764
▁revolution	-11.277
▁$5	-11.2779
AUSE	-11.2788
▁Low	-11.279
EEEEEEEEEE	-11.2791
▁RED	-11.2806
OOOOOOO	-11.2867
▁spit	-11.2938
:58	-11.2954
Vers	-11.2964
XL	-11.298
▁owe	-11.2997
avy	-11.3001
roon	-11.3004
ELE	-11.3008
INA	-11.3023
▁Oooo	-11.3041
▁peaceful	-11.3065
PT	-11.3086
dont	-11.3137
nTo	-11.3152
▁cookie	-11.316
brow	-11.3181
▁sponsor	-11.3185
▁notification	-11.3197
▁sometime	-11.321
:05	-11.3224
▁relat	-11.3247
IEN	-11.3269
HAHAHAHAHA	-11.3275
LESS	-11.3276
ZZ	-11.3284
ternal	-11.3289
prof	-11.3348
▁ratio	-11.3373
▁origin	-11.3375
▁looo	-11.3378
▁dirt	-11.3383
itos	-11.3383
▁Geo	-11.3383
▁duo	-11.3391
rrrr	-11.3399
▁scienti	-11.3401
▁hoe	-11.3409
▁drag	-11.341
▁celeb	-11.341
professor	-11.3411
▁Universe	-11.3411
Stereogram	-11.3411
▁STUFF	-11.3411
Meanwhile	-11.3411
aravilhosa	-11.3411
pongebob	-11.3411
▁CROSS	-11.3411
▁EXCITED	-11.3411
▁Enjoy	-11.3411
▁FIRST	-11.3411
▁Galaxy	-11.3411
▁Leonard	-11.3411
▁Matthias	-11.3411
▁McCain	-11.3411
▁Michigan	-11.3411
▁REACT	-11.3411
▁Riverdale	-11.3411
▁SCREAM	-11.3411
▁Zealand	-11.3411
▁airplane	-11.3411
▁apocalypse	-11.3411
▁arrangement	-11.3411
▁desperate	-11.3411
▁dinosaur	-11.3411
▁franchise	-11.3411
▁frustrating	-11.3411
▁goosebumps	-11.3411
▁individual	-11.3411
▁intelligence	-11.3411
▁jimmy	-11.3411
▁lifestyle	-11.3411
▁mexican	-11.3411
▁microphone	-11.3411
▁miranda	-11.3411
▁neutral	-11.3411
▁nikki	-11.3411
▁previous	-11.3411
▁quarter	-11.3411
▁register	-11.3411
▁republican	-11.3411
▁satisfying	-11.3411
▁sausage	-11.3411
▁snowflake	-11.3411
ndirme	-11.3411
▁Frankie	-11.3411
▁Lawrence	-11.3411
▁familiar	-11.3411
▁guilty	-11.3411
▁private	-11.3411
▁rigged	-11.3411
▁soundtrack	-11.3411
Gabriel	-11.3411
▁Church	-11.3411
▁KNEW	-11.3411
▁Mickey	-11.3411
▁Savage	-11.3411
▁blush	-11.3411
▁espaol	-11.3411
▁minority	-11.3411
▁motherfucker	-11.3411
▁patient	-11.3411
▁riddance	-11.3411
▁throat	-11.3411
▁Darius	-11.3411
▁buzz	-11.3411
▁empty	-11.3411
▁praise	-11.3411
▁Android	-11.3411
▁Louis	-11.3411
▁hermoso	-11.3411
▁lebron	-11.3411
▁pencil	-11.3411
▁trophy	-11.3411
▁eyeliner	-11.3411
divorce	-11.3411
▁Anitta	-11.3411
▁PERSON	-11.3411
BODY	-11.3411
▁smith	-11.3411
▁Wrong	-11.3411
▁2012	-11.3411
▁breastfeeding	-11.3411
▁network	-11.3411
▁smosh	-11.3411
▁Hitler	-11.3411
▁SJW	-11.3411
▁resources	-11.3411
▁Batman	-11.3411
▁translate	-11.3411
▁Woah	-11.3411
Matrix	-11.3411
▁MUST	-11.3411
Third	-11.3411
Nazis	-11.3411
▁conquer	-11.3411
▁ACTUAL	-11.3411
▁Besides	-11.3411
▁DEAD	-11.3411
▁Epic	-11.3411
▁error	-11.3411
HEAD	-11.3411
▁Type	-11.3411
▁copyright	-11.3411
utumn	-11.3411
▁therapy	-11.3411
▁Visit	-11.3411
▁liza	-11.3411
▁heavi	-11.3411
▁Giant	-11.3411
▁puppy	-11.3411
Diego	-11.3411
▁championship	-11.3411
▁contest	-11.3411
LLLLLL	-11.3411
▁relieve	-11.3411
▁charlie	-11.3411
▁GURL	-11.3412
▁profit	-11.3412
▁Claire	-11.3412
whisper	-11.3412
▁MISS	-11.3412
▁Water	-11.3412
▁Alright	-11.3412
▁feedback	-11.3412
▁humour	-11.3412
WEEK	-11.3412
▁Shawn	-11.3412
▁korea	-11.3412
wengie	-11.3413
▁ultra	-11.3413
▁Burn	-11.3413
▁burst	-11.3413
▁Curry	-11.3413
▁africa	-11.3413
▁Level	-11.3413
ppointed	-11.3413
▁species	-11.3414
▁666	-11.3414
▁dramatic	-11.3414
▁Jared	-11.3414
▁controlled	-11.3414
▁flop	-11.3414
▁2:45	-11.3414
▁Bush	-11.3414
▁slavery	-11.3415
▁rename	-11.3415
▁Wilson	-11.3415
▁quant	-11.3415
secure	-11.3415
▁electricity	-11.3416
▁depressed	-11.3416
nHow	-11.3416
▁Wonderful	-11.3416
▁neat	-11.3416
▁varie	-11.3416
▁Shut	-11.3417
▁loaf	-11.3417
▁responsibl	-11.3418
▁Luci	-11.3418
▁Brazilian	-11.3418
▁replay	-11.3418
▁BLESS	-11.3419
AAAAAAAAAAAAAAAA	-11.3419
▁habit	-11.3419
▁Story	-11.3419
▁asmr	-11.3419
▁funnies	-11.3419
▁Poland	-11.342
▁haircut	-11.342
▁gusta	-11.3421
▁instantly	-11.3421
▁Koda	-11.3421
▁contain	-11.3421
▁BRING	-11.3422
▁2010	-11.3423
▁promotion	-11.3423
▁runner	-11.3423
▁Sick	-11.3424
▁Lego	-11.3424
▁Gaga	-11.3424
STAND	-11.3425
ocaine	-11.3425
▁Rocket	-11.3425
▁Chance	-11.3426
▁Mother	-11.3427
▁storyline	-11.3427
▁brake	-11.3428
▁Bond	-11.3428
▁GMM	-11.3431
▁Wade	-11.3431
▁panel	-11.3433
Your	-11.3434
scope	-11.3436
▁GIVE	-11.3436
▁editor	-11.3437
EDEN	-11.3437
▁Gray	-11.3438
▁manual	-11.3438
▁Makeup	-11.3439
▁Lively	-11.3439
▁among	-11.3441
Throw	-11.3443
▁followers	-11.3444
dashi	-11.3446
▁CRY	-11.3446
▁Jean	-11.3447
▁curse	-11.3447
▁MOM	-11.3448
rypto	-11.3448
hloe	-11.345
▁tripp	-11.345
▁superman	-11.3451
▁mash	-11.3452
▁Once	-11.3453
▁THESE	-11.3454
▁Cover	-11.3455
▁Cali	-11.3456
▁Desp	-11.3457
▁heroes	-11.346
▁YAY	-11.3461
▁hyper	-11.3463
▁Face	-11.3467
▁Thor	-11.3468
▁bts	-11.3468
▁hotter	-11.3468
▁HIT	-11.3472
oooooooo	-11.3478
▁addicted	-11.3478
▁lesson	-11.348
▁discover	-11.3481
▁amber	-11.3485
CONGRATS	-11.3486
fone	-11.349
▁Maria	-11.3491
▁porno	-11.3493
▁rare	-11.3496
▁refuse	-11.3496
duction	-11.3497
treatment	-11.3519
▁signal	-11.3521
▁BOO	-11.354
▁mug	-11.3543
▁trade	-11.3544
▁lego	-11.3545
anuel	-11.355
▁reduce	-11.3558
HIV	-11.3575
wow	-11.3583
▁SOOO	-11.359
▁erase	-11.3604
ogue	-11.3612
240	-11.3624
▁Law	-11.3639
ponsored	-11.3641
00,000	-11.3649
COL	-11.3653
▁poppe	-11.3676
tical	-11.369
▁enthusias	-11.3735
▁mais	-11.3739
twitter	-11.3765
word	-11.3768
friend	-11.3777
NED	-11.3785
trending	-11.3787
Still	-11.3787
human	-11.3796
check	-11.3812
Germany	-11.3815
When	-11.3817
least	-11.3825
▁kil	-11.3827
▁Nah	-11.3831
cool	-11.3838
▁hace	-11.3839
▁neg	-11.3856
gggggg	-11.3878
spelled	-11.3879
▁thankful	-11.3898
igger	-11.3911
OSE	-11.392
iya	-11.3952
▁gene	-11.3967
▁cardi	-11.399
RRY	-11.3999
▁insti	-11.4012
sigh	-11.4038
AUT	-11.4068
▁occur	-11.4085
▁DIDN	-11.4085
reshman	-11.4111
▁hahahah	-11.4113
iiiiii	-11.4199
:55	-11.4235
▁Vlog	-11.4237
UGHT	-11.425
▁Muslim	-11.4252
oily	-11.4259
▁Fact	-11.4267
sually	-11.4284
:06	-11.4294
▁violent	-11.4309
EEEEEE	-11.437
▁wu	-11.4374
selling	-11.4395
jama	-11.4406
TIM	-11.4424
cles	-11.4424
vici	-11.4448
▁Emma	-11.4459
▁include	-11.4484
▁Walk	-11.4488
▁Stev	-11.449
▁promot	-11.4491
▁constant	-11.4502
▁threat	-11.4507
▁Olive	-11.4508
▁simulat	-11.4513
finitely	-11.4515
amsung	-11.4519
etween	-11.4519
▁harass	-11.452
▁Spice	-11.452
economic	-11.4522
UUUU	-11.4522
Boycott	-11.4522
▁Bullshit	-11.4522
▁Secret	-11.4522
▁WRONG	-11.4522
▁arrested	-11.4522
▁consistent	-11.4522
▁manufactur	-11.4522
▁neighbour	-11.4522
▁publish	-11.4522
▁substitut	-11.4522
HURRICANE	-11.4522
empre	-11.4522
establish	-11.4522
nGordon	-11.4522
▁Aladdin	-11.4522
▁Blood	-11.4522
▁Boogie	-11.4522
▁Clickbait	-11.4522
▁Colorado	-11.4522
▁December	-11.4522
▁GORGEOUS	-11.4522
▁Indonesia	-11.4522
▁LEGEND	-11.4522
▁LIBERAL	-11.4522
▁Mxico	-11.4522
▁SECOND	-11.4522
▁Sherlock	-11.4522
▁TAYLOR	-11.4522
▁TRUTH	-11.4522
▁Unfortunately	-11.4522
▁WORLD	-11.4522
▁allergic	-11.4522
▁application	-11.4522
▁celebrating	-11.4522
▁coincidence	-11.4522
▁convinced	-11.4522
▁disturbing	-11.4522
▁filthy	-11.4522
▁friggin	-11.4522
▁grandfather	-11.4522
▁helmet	-11.4522
▁hockey	-11.4522
▁irrelevant	-11.4522
▁neighborhood	-11.4522
▁nostalgia	-11.4522
▁participa	-11.4522
▁phenomenal	-11.4522
▁relief	-11.4522
▁remote	-11.4522
▁riverdale	-11.4522
▁sacrifice	-11.4522
▁syrup	-11.4522
▁yummy	-11.4522
▁Jersey	-11.4522
▁Quality	-11.4522
▁apparently	-11.4522
▁boycott	-11.4522
▁sequel	-11.4522
keleton	-11.4522
▁DOWN	-11.4522
▁Graham	-11.4522
▁Pepper	-11.4522
▁Turkey	-11.4522
▁mobile	-11.4522
▁reboot	-11.4522
ephora	-11.4522
▁Camila	-11.4522
▁virtu	-11.4522
JAMES	-11.4522
▁1:45	-11.4522
▁HEART	-11.4522
▁Lebron	-11.4522
▁thrill	-11.4522
▁Julien	-11.4522
▁crisis	-11.4522
▁mixture	-11.4522
condition	-11.4522
▁Racist	-11.4522
▁Smosh	-11.4522
▁Vikings	-11.4522
▁innocent	-11.4522
▁technical	-11.4522
▁Lauv	-11.4522
▁FOOD	-11.4522
▁Huge	-11.4522
▁Street	-11.4522
▁Human	-11.4522
▁Prime	-11.4522
▁basketball	-11.4522
▁preach	-11.4522
▁suburb	-11.4522
▁superior	-11.4522
▁LONG	-11.4522
▁OCD	-11.4522
▁autism	-11.4522
▁console	-11.4522
▁DUMB	-11.4522
▁kylie	-11.4522
▁venom	-11.4522
▁WORK	-11.4522
eeeeeeeeeeeee	-11.4522
▁disabled	-11.4522
▁straw	-11.4522
▁crystal	-11.4522
▁CAME	-11.4522
▁whale	-11.4522
▁Raider	-11.4522
▁adopt	-11.4522
▁arrive	-11.4522
▁fiction	-11.4522
▁goddam	-11.4522
Remove	-11.4522
▁alpha	-11.4522
▁Again	-11.4522
▁Three	-11.4522
▁COMMENT	-11.4522
▁desert	-11.4522
▁Zayn	-11.4522
▁awsome	-11.4522
▁Tbh	-11.4522
▁timing	-11.4522
▁jesus	-11.4522
▁surround	-11.4522
vember	-11.4522
stood	-11.4523
▁choke	-11.4523
▁BANG	-11.4523
serving	-11.4523
SELF	-11.4523
▁pregnancy	-11.4523
▁Snake	-11.4523
▁Pick	-11.4523
llusion	-11.4523
LINK	-11.4523
▁bucket	-11.4523
▁backwards	-11.4523
▁Cavs	-11.4523
▁james	-11.4523
▁flies	-11.4523
▁drift	-11.4523
▁escape	-11.4523
▁CHAR	-11.4523
marbles	-11.4523
▁transport	-11.4523
silver	-11.4523
▁argue	-11.4523
▁aircraft	-11.4523
▁corgi	-11.4524
IBLE	-11.4524
▁desire	-11.4524
▁apologize	-11.4524
▁harassment	-11.4524
******	-11.4524
▁greed	-11.4524
▁opportunity	-11.4524
▁dunno	-11.4524
▁narrative	-11.4524
▁lunch	-11.4524
▁element	-11.4524
▁$1000	-11.4524
onaldo	-11.4525
▁breed	-11.4525
▁DAYS	-11.4525
▁HOME	-11.4525
▁Daddy	-11.4525
▁Short	-11.4525
▁Hawaiian	-11.4525
▁dumbass	-11.4525
▁Chuck	-11.4525
▁ACT	-11.4525
▁maintain	-11.4525
▁BIGGE	-11.4525
▁tuning	-11.4525
▁2014	-11.4526
assuming	-11.4526
proving	-11.4526
▁apartment	-11.4526
▁pony	-11.4527
▁rope	-11.4527
▁homework	-11.4527
▁tires	-11.4527
aika	-11.4527
▁nerf	-11.4527
cific	-11.4527
▁Idris	-11.4528
▁friendship	-11.4528
▁regulation	-11.4528
althcare	-11.4528
▁grill	-11.4528
▁alert	-11.4529
▁Shout	-11.4529
▁olive	-11.453
▁Half	-11.453
▁penny	-11.453
▁Chloe	-11.453
▁0:40	-11.453
▁label	-11.453
▁yawn	-11.453
▁achievement	-11.4531
▁playoff	-11.4531
▁Bird	-11.4531
▁hitler	-11.4532
▁Canelo	-11.4532
▁Break	-11.4532
▁Jedi	-11.4533
▁WATCHING	-11.4533
▁spring	-11.4533
▁fourth	-11.4533
▁harry	-11.4533
▁MCU	-11.4533
▁acid	-11.4535
▁rapid	-11.4535
▁Barry	-11.4535
▁innovati	-11.4535
▁NICE	-11.4536
Bruce	-11.4538
▁frank	-11.4538
▁safety	-11.4539
▁Flash	-11.4539
▁1/2	-11.4541
blank	-11.4541
▁gurl	-11.4541
▁Lady	-11.4542
▁Sadie	-11.4542
▁FALL	-11.4543
▁10,000	-11.4544
▁chase	-11.4544
▁CBS	-11.4544
▁Hold	-11.4545
rrrrrr	-11.4545
HUT	-11.4546
ireless	-11.4546
▁skinny	-11.4546
▁MESS	-11.4547
▁pace	-11.4547
▁patch	-11.4548
▁setup	-11.455
▁horn	-11.455
▁Italy	-11.455
▁yards	-11.455
▁Alec	-11.4552
▁420	-11.4553
▁Doug	-11.4553
▁bones	-11.4553
▁socks	-11.4553
▁UGH	-11.4553
▁Walker	-11.4556
▁thx	-11.4565
▁ATM	-11.4568
▁wack	-11.4568
▁mph	-11.4568
▁cheer	-11.4569
▁accidental	-11.4569
▁Donna	-11.457
SCAR	-11.457
▁FAV	-11.4574
PID	-11.4576
▁Ooooo	-11.4577
▁FIF	-11.458
▁adapt	-11.4583
▁hint	-11.4589
▁Fred	-11.4598
▁Lara	-11.4598
▁tier	-11.4601
nCan	-11.4608
logan	-11.4615
ANNA	-11.4626
OSI	-11.4629
dropping	-11.4634
▁Year	-11.4639
▁trop	-11.4647
income	-11.4647
asically	-11.4665
▁rotate	-11.4681
▁diagnose	-11.4688
vana	-11.4691
odd	-11.4697
rawl	-11.4707
INTO	-11.4712
▁YASSSS	-11.472
▁yell	-11.4728
outhern	-11.4731
obby	-11.4743
▁tha	-11.4755
▁Ven	-11.4757
▁split	-11.479
becu	-11.481
phone	-11.4829
iiiii	-11.4851
▁boil	-11.4884
UNIT	-11.4886
hanging	-11.4906
Please	-11.4936
odor	-11.4944
sembl	-11.4944
What	-11.4948
▁LATE	-11.4957
▁deni	-11.4972
▁article	-11.5005
Instagram	-11.5018
interest	-11.502
creative	-11.5025
wood	-11.5026
related	-11.5027
LMAO	-11.5028
public	-11.503
front	-11.5031
foot	-11.5032
WHAT	-11.5033
Chris	-11.5034
▁rippe	-11.5034
maybe	-11.5036
YouTube	-11.5036
space	-11.5038
LOVE	-11.5042
born	-11.5045
▁Este	-11.5072
▁narrat	-11.5088
lthough	-11.5101
Free	-11.5112
eaten	-11.5182
▁appreciat	-11.5211
piritual	-11.5251
▁$9	-11.5276
hahahha	-11.5314
▁veteran	-11.5358
▁purchase	-11.5374
pressed	-11.5387
▁Aye	-11.5387
▁chees	-11.5461
▁Viv	-11.5477
▁reduc	-11.5483
itchen	-11.5499
▁eyebrow	-11.5503
▁YASSS	-11.5552
USTIN	-11.5573
▁critic	-11.5622
▁addition	-11.5648
▁Left	-11.5666
▁THINK	-11.5721
▁THAN	-11.5737
hield	-11.5754
OMEN	-11.5758
▁select	-11.5767
etflix	-11.5768
nstruction	-11.5769
▁Pete	-11.577
▁Arab	-11.5771
wikipedia	-11.5772
▁Direction	-11.5772
▁FRIEND	-11.5772
▁VIEWS	-11.5772
▁Zombie	-11.5772
▁grocery	-11.5772
▁international	-11.5772
BOYCOTT	-11.5772
WINNER	-11.5772
diversity	-11.5772
▁COUNTRY	-11.5772
▁Eugene	-11.5772
▁Franklin	-11.5772
▁HAPPEN	-11.5772
▁Kanye	-11.5772
▁Kermit	-11.5772
▁LAUREN	-11.5772
▁Lindsay	-11.5772
▁Lloyd	-11.5772
▁Personally	-11.5772
▁Punisher	-11.5772
▁READY	-11.5772
▁SHOOK	-11.5772
▁TRUE	-11.5772
▁Terrible	-11.5772
▁Thumbnail	-11.5772
▁Toronto	-11.5772
▁Travolta	-11.5772
▁VLOG	-11.5772
▁Vegan	-11.5772
▁advertising	-11.5772
▁century	-11.5772
▁christmas	-11.5772
▁climb	-11.5772
▁confusing	-11.5772
▁conspiracy	-11.5772
▁emergency	-11.5772
▁encourage	-11.5772
▁enforce	-11.5772
▁equivalent	-11.5772
▁eyelashes	-11.5772
▁gimmick	-11.5772
▁hometown	-11.5772
▁ignorance	-11.5772
▁integrity	-11.5772
▁rescue	-11.5772
▁resistant	-11.5772
▁shrimp	-11.5772
▁stadium	-11.5772
▁struggling	-11.5772
▁unfunny	-11.5772
▁university	-11.5772
▁vehicle	-11.5772
Malaysia	-11.5772
▁Cyrus	-11.5772
▁Mayweather	-11.5772
▁Rainbow	-11.5772
▁STORY	-11.5772
▁Switch	-11.5772
▁gesture	-11.5772
▁omfg	-11.5772
▁sunglasses	-11.5772
▁villain	-11.5772
latinum	-11.5772
▁Russell	-11.5772
▁THUMB	-11.5772
▁abandon	-11.5772
▁bleach	-11.5772
▁comparison	-11.5772
▁friday	-11.5772
▁froze	-11.5772
ejected	-11.5772
▁Hansen	-11.5772
▁iguana	-11.5772
▁whatsoever	-11.5772
▁Snoke	-11.5772
▁cliche	-11.5772
▁unboxing	-11.5772
▁Ghost	-11.5772
▁Psych	-11.5772
▁ancient	-11.5772
Palestine	-11.5772
▁GOLD	-11.5772
▁spanish	-11.5772
jajajajajajajaja	-11.5772
▁Bowie	-11.5772
▁Collins	-11.5772
▁Freedom	-11.5772
estival	-11.5772
valuable	-11.5772
▁DYING	-11.5772
▁Lucky	-11.5772
▁backpack	-11.5772
▁buena	-11.5772
▁melody	-11.5772
▁bunny	-11.5772
▁Breath	-11.5772
▁Edward	-11.5772
▁Worth	-11.5772
▁aspect	-11.5772
▁stephen	-11.5772
▁Fleur	-11.5772
magnet	-11.5772
▁gabbie	-11.5772
▁stamp	-11.5772
▁vomit	-11.5772
▁Leave	-11.5772
▁hydra	-11.5772
▁Annie	-11.5772
▁bodies	-11.5772
▁Ruin	-11.5772
▁1/3	-11.5772
▁LAUGH	-11.5772
▁Vanessa	-11.5772
▁bleeding	-11.5772
▁dedicate	-11.5772
▁vegas	-11.5772
▁criticism	-11.5772
▁homie	-11.5772
▁Taco	-11.5772
▁Mykie	-11.5772
▁HIGH	-11.5773
▁vacation	-11.5773
▁douche	-11.5773
▁Open	-11.5773
aaaaaaaaaaaaaaaa	-11.5773
▁bbq	-11.5773
▁tiger	-11.5773
▁tyler	-11.5773
▁recovery	-11.5773
▁unbelievable	-11.5773
▁bucks	-11.5773
▁jones	-11.5773
▁storage	-11.5773
▁Hispanic	-11.5773
ebay	-11.5773
▁imperfect	-11.5773
▁CHECK	-11.5773
▁skipped	-11.5774
▁JACKIE	-11.5774
▁crown	-11.5774
▁demand	-11.5774
▁Satan	-11.5774
▁STATE	-11.5774
▁photoshop	-11.5774
▁genetic	-11.5774
▁theories	-11.5774
▁gangster	-11.5774
▁unnecessary	-11.5774
nderground	-11.5774
miento	-11.5775
▁usher	-11.5775
▁succ	-11.5775
▁Shoot	-11.5775
▁Monster	-11.5775
▁shotgun	-11.5775
▁chief	-11.5775
▁breakdown	-11.5775
▁Kesha	-11.5775
▁minimal	-11.5775
▁riot	-11.5775
▁THINGS	-11.5775
TICK	-11.5775
ummmm	-11.5775
▁progressive	-11.5775
▁witness	-11.5775
▁Glob	-11.5775
▁hatred	-11.5776
▁SEO	-11.5776
LASS	-11.5776
▁stunt	-11.5776
▁youuu	-11.5776
▁narration	-11.5776
▁curve	-11.5776
▁Rebel	-11.5776
estimate	-11.5776
arbage	-11.5776
ROKE	-11.5777
▁debt	-11.5777
▁airport	-11.5777
reddit	-11.5777
▁Smh	-11.5777
▁adjust	-11.5777
NSEN	-11.5777
▁swallow	-11.5777
▁staff	-11.5778
xactly	-11.5778
▁Crowd	-11.5778
▁zero	-11.5778
▁jeff	-11.5779
▁PLS	-11.5779
TEAM	-11.5779
▁Kidman	-11.5779
▁racial	-11.5779
▁Danny	-11.5779
▁Hanna	-11.578
▁Spend	-11.578
▁grasp	-11.578
▁tiene	-11.578
URCH	-11.5781
▁Paris	-11.5781
▁chuck	-11.5781
▁obsession	-11.5781
▁Cuba	-11.5781
▁TODAY	-11.5782
▁replacement	-11.5782
▁fashionable	-11.5782
▁ryan	-11.5782
▁luke	-11.5782
▁Gross	-11.5782
▁Cardi	-11.5782
▁elite	-11.5783
▁equi	-11.5783
naked	-11.5783
▁Media	-11.5783
▁martin	-11.5783
▁honk	-11.5784
▁Mariah	-11.5784
▁dumbasses	-11.5784
▁fkn	-11.5784
▁Master	-11.5784
▁crumb	-11.5784
▁reward	-11.5785
▁homo	-11.5785
▁colab	-11.5786
▁fift	-11.5786
▁jaja	-11.5786
▁1:50	-11.5786
▁drill	-11.5787
▁Tati	-11.5788
▁functional	-11.5788
▁threaten	-11.5788
GENI	-11.5788
▁flick	-11.5789
Magic	-11.5789
unshine	-11.579
▁HAND	-11.579
▁Anna	-11.5792
▁Stone	-11.5792
historic	-11.5793
▁Issa	-11.5794
▁TWO	-11.5795
▁Change	-11.5795
▁nico	-11.5795
▁Latin	-11.5796
▁elder	-11.5797
ddddd	-11.5798
▁KIM	-11.5798
lastic	-11.5799
TFL	-11.5799
▁bond	-11.5799
▁Steph	-11.58
abish	-11.58
▁MAY	-11.5801
▁format	-11.5801
▁pile	-11.5803
arpool	-11.5803
▁shay	-11.5803
▁Deep	-11.5807
▁reproduc	-11.5808
▁Hook	-11.5813
icegum	-11.5813
▁Hua	-11.5814
▁march	-11.5816
▁Batt	-11.5821
▁Cringe	-11.5823
fps	-11.5826
▁dragg	-11.5827
prize	-11.5829
mulat	-11.5833
▁chew	-11.5849
prod	-11.5853
▁wire	-11.5861
2.5	-11.5908
abor	-11.5916
critical	-11.5924
▁surviv	-11.5936
sabi	-11.5952
wya	-11.6014
▁Arian	-11.6015
urious	-11.6019
▁Brand	-11.6031
unica	-11.607
▁unsubscrib	-11.6109
▁WHI	-11.6123
▁Though	-11.6133
ooooooooooooo	-11.6149
▁neo	-11.6244
basic	-11.6262
charged	-11.6272
1:58	-11.6278
Logi	-11.6297
omehow	-11.6365
That	-11.6368
tribute	-11.6422
stei	-11.6435
field	-11.6449
correct	-11.6451
present	-11.6454
comedian	-11.6454
crack	-11.6458
After	-11.6459
gift	-11.6463
yeah	-11.6464
food	-11.6465
drawn	-11.6467
lmao	-11.6476
COME	-11.6479
LIKE	-11.6482
▁trea	-11.6489
think	-11.6492
arrator	-11.6499
avor	-11.6559
nspired	-11.6564
vida	-11.6585
articles	-11.6622
Sorry	-11.6654
▁4:2	-11.6758
tender	-11.6759
zzle	-11.6768
▁EVAN	-11.6783
:56	-11.6805
zzy	-11.6902
▁censor	-11.6951
▁Quit	-11.6958
spreading	-11.703
▁transform	-11.7036
lready	-11.707
▁athlet	-11.7073
bounce	-11.7141
▁featur	-11.7146
▁confirm	-11.7146
▁impress	-11.7151
▁involv	-11.7167
RICK	-11.7194
▁construct	-11.7196
▁opportuni	-11.7197
▁JACK	-11.7198
FACT	-11.7199
▁gymnast	-11.72
▁NIGHT	-11.72
▁TUTORIAL	-11.72
▁chrome	-11.72
HOLLYWOOD	-11.72
LOLOLOL	-11.72
Sptzle	-11.72
autistic	-11.72
elsius	-11.72
nYeah	-11.72
ufflepuff	-11.72
ydrogen	-11.72
▁ABSOLUTE	-11.72
▁AMERICA	-11.72
▁Adventure	-11.72
▁DESERVE	-11.72
▁ENOUGH	-11.72
▁Female	-11.72
▁Horrible	-11.72
▁INSTRU	-11.72
▁Jonathan	-11.72
▁Natalie	-11.72
▁Olivia	-11.72
▁Pathetic	-11.72
▁REVIEW	-11.72
▁Respect	-11.72
▁SERIOUS	-11.72
▁Singapore	-11.72
▁acknowledg	-11.72
▁aggressive	-11.72
▁anniversary	-11.72
▁arrogant	-11.72
▁australia	-11.72
▁calculat	-11.72
▁chapter	-11.72
▁consumer	-11.72
▁creativity	-11.72
▁division	-11.72
▁economy	-11.72
▁embarrassing	-11.72
▁entitled	-11.72
▁equipment	-11.72
▁extension	-11.72
▁flavour	-11.72
▁hairstyle	-11.72
▁horizon	-11.72
▁infinity	-11.72
▁karaoke	-11.72
▁mexico	-11.72
▁millennial	-11.72
▁minorities	-11.72
▁monopol	-11.72
▁mosquito	-11.72
▁narcissist	-11.72
▁necessary	-11.72
▁neither	-11.72
▁obnoxious	-11.72
▁passenger	-11.72
▁predator	-11.72
▁puberty	-11.72
▁rampant	-11.72
▁religious	-11.72
▁responsibility	-11.72
▁royalty	-11.72
▁sarcasm	-11.72
▁statues	-11.72
▁supremacy	-11.72
▁sympath	-11.72
▁terrorism	-11.72
▁tsunami	-11.72
▁underneath	-11.72
▁vegetarian	-11.72
▁velcro	-11.72
▁vulnerability	-11.72
▁wallpaper	-11.72
STRONG	-11.72
bubbles	-11.72
corporate	-11.72
▁ARMY	-11.72
▁Football	-11.72
▁League	-11.72
▁Meghan	-11.72
▁SPOILER	-11.72
▁UNDER	-11.72
▁acoustic	-11.72
▁backdrop	-11.72
▁delusion	-11.72
▁enormous	-11.72
▁executi	-11.72
▁jersey	-11.72
▁mathematic	-11.72
▁newspaper	-11.72
▁photography	-11.72
▁sandwich	-11.72
capella	-11.72
radiation	-11.72
▁Seamus	-11.72
▁Toyota	-11.72
▁Zelda	-11.72
▁elbow	-11.72
▁invention	-11.72
▁knives	-11.72
▁strike	-11.72
▁theoretical	-11.72
▁thermite	-11.72
▁Genius	-11.72
▁Yolanda	-11.72
▁blatant	-11.72
▁congress	-11.72
▁9/11	-11.72
▁Burger	-11.72
▁Corrine	-11.72
▁FLAG	-11.72
▁expand	-11.72
▁harmony	-11.72
▁mierda	-11.72
▁trillion	-11.72
▁vodka	-11.72
▁Bieber	-11.72
▁Montana	-11.72
▁eachother	-11.72
▁fanbase	-11.72
▁massacre	-11.72
▁salute	-11.72
▁victor	-11.72
▁Ashley	-11.72
▁HELP	-11.72
▁approve	-11.72
▁studie	-11.72
▁trunk	-11.72
▁overpaid	-11.72
Emoji	-11.72
▁HORR	-11.72
▁library	-11.72
▁millionaire	-11.72
▁ninja	-11.72
▁Civil	-11.72
▁Photo	-11.72
▁Reason	-11.72
▁david	-11.72
▁dildo	-11.72
▁niece	-11.72
▁Double	-11.72
▁Serena	-11.72
▁Ralph	-11.72
onocle	-11.72
▁Dammit	-11.72
▁gymnastics	-11.72
▁harsh	-11.72
▁BUTTON	-11.72
▁Daisy	-11.72
▁Jenny	-11.72
▁lectur	-11.72
Classic	-11.72
ALSO	-11.72
▁allergy	-11.72
▁hardware	-11.72
▁towels	-11.72
▁craving	-11.72
mpersonat	-11.72
▁scroll	-11.72
▁0010000	-11.72
▁Fairy	-11.72
▁OLD	-11.72
redneck	-11.72
▁Dallas	-11.72
▁hardcore	-11.72
▁homosexual	-11.72
Buzz	-11.7201
hahahahahahahaha	-11.7201
▁blanket	-11.7201
▁presence	-11.7201
nLook	-11.7201
▁Squad	-11.7201
Accord	-11.7201
▁Wealth	-11.7201
▁collaborate	-11.7201
▁verdad	-11.7201
▁depth	-11.7201
▁kyrie	-11.7201
▁gloss	-11.7201
▁Otherwise	-11.7201
▁funeral	-11.7201
stfu	-11.7201
▁Carrey	-11.7201
▁ELSE	-11.7201
▁Clive	-11.7201
nBtw	-11.7201
▁grind	-11.7201
▁Banks	-11.7201
▁acquir	-11.7201
▁raven	-11.7201
Kneel	-11.7201
▁concentrat	-11.7201
▁Destin	-11.7201
parece	-11.7201
▁spoon	-11.7201
▁excess	-11.7201
▁Gwen	-11.7201
▁mystery	-11.7201
▁cereal	-11.7201
▁constitution	-11.7201
▁introduction	-11.7201
▁vagina	-11.7201
▁wealth	-11.7201
▁Britain	-11.7201
▁Wick	-11.7201
▁lawyer	-11.7201
▁labor	-11.7201
▁stink	-11.7201
▁western	-11.7201
▁MASS	-11.7201
▁Chief	-11.7202
▁foreign	-11.7202
▁ANYTHING	-11.7202
▁convert	-11.7202
Minute	-11.7202
▁Amei	-11.7202
▁Word	-11.7202
▁lizard	-11.7202
scape	-11.7202
▁$200	-11.7202
▁Chiron	-11.7202
rival	-11.7203
▁OWN	-11.7203
▁HOPE	-11.7203
▁hoax	-11.7203
Brothers	-11.7203
▁eternal	-11.7203
▁Arabia	-11.7203
▁slice	-11.7203
▁hipster	-11.7203
▁iOS	-11.7203
▁Russ	-11.7203
sensor	-11.7203
LIPS	-11.7203
▁nurse	-11.7203
▁Perry	-11.7204
▁Panther	-11.7204
▁Brain	-11.7204
Anderson	-11.7204
▁nitro	-11.7204
loyal	-11.7204
▁Darci	-11.7204
nomination	-11.7205
▁honor	-11.7205
wilight	-11.7205
▁Nigger	-11.7205
▁selection	-11.7205
submit	-11.7205
▁buses	-11.7205
accord	-11.7205
▁Lisa	-11.7205
▁Vote	-11.7205
▁farming	-11.7206
▁prze	-11.7206
▁cinema	-11.7206
▁oven	-11.7206
▁shiny	-11.7206
alcon	-11.7206
▁extend	-11.7206
▁liam	-11.7207
▁Jerry	-11.7207
▁hahahahaha	-11.7207
▁construction	-11.7207
Easy	-11.7207
HOUSE	-11.721
▁hoodie	-11.721
egon	-11.721
▁muito	-11.7211
▁WORS	-11.7211
artbeat	-11.7211
▁Kiss	-11.7212
RIVER	-11.7212
▁Grande	-11.7213
Fighter	-11.7213
▁Meyer	-11.7214
▁applie	-11.7216
▁outcome	-11.7217
▁algu	-11.7217
▁popping	-11.7217
▁scrap	-11.7219
joined	-11.722
▁IDEA	-11.722
▁Temp	-11.7222
SHAME	-11.7223
▁organize	-11.7224
mendes	-11.7224
▁pedo	-11.723
▁Eye	-11.7233
GROUND	-11.7236
BOOK	-11.7243
▁generat	-11.7244
petite	-11.7255
arney	-11.7256
▁Smok	-11.7274
lexi	-11.7281
abbi	-11.7299
ENTION	-11.7304
▁whipp	-11.7321
▁Ult	-11.7322
athletes	-11.7333
hhhhhhhhhhhh	-11.7373
:41	-11.7418
AHAHAH	-11.7438
builder	-11.7489
▁worship	-11.751
▁plzzz	-11.7527
paste	-11.7576
digit	-11.7597
subscribe	-11.7684
canary	-11.7828
▁196	-11.7853
http	-11.8002
servation	-11.8014
▁Micro	-11.8097
school	-11.8103
piece	-11.8118
armed	-11.8123
american	-11.8123
Life	-11.8126
Check	-11.8126
respect	-11.8127
John	-11.8127
could	-11.8133
first	-11.8133
better	-11.8135
Super	-11.8138
▁SEA	-11.8144
anoi	-11.8145
aime	-11.8178
abie	-11.8192
Earl	-11.8394
hicken	-11.8403
▁spoil	-11.8408
UTF	-11.841
titude	-11.8496
▁William	-11.8599
▁thumb	-11.86
EVA	-11.8706
AAAAAAAAAAAA	-11.8726
rosan	-11.8733
▁custom	-11.8769
nova	-11.8791
▁obsess	-11.8821
ROUND	-11.8825
▁worrie	-11.8829
▁confuse	-11.883
mportant	-11.8842
▁horribl	-11.8842
▁immediate	-11.8847
featu	-11.8848
echnology	-11.8861
utorial	-11.8861
urrently	-11.8863
overnment	-11.8865
corns	-11.8866
conflict	-11.8867
ATTENTION	-11.8867
▁exchange	-11.8867
Nickelodeon	-11.8867
pectacular	-11.8867
▁absurd	-11.8867
▁evacuat	-11.8867
▁exhaust	-11.8867
▁extinct	-11.8867
▁frequenc	-11.8867
▁umbrella	-11.8867
470492	-11.8867
CIENCE	-11.8867
Chocolate	-11.8867
DFTBA	-11.8867
Kaepernick	-11.8867
PUERTO	-11.8867
html	-11.8867
significant	-11.8867
upernatural	-11.8867
▁ALBUM	-11.8867
▁ALREADY	-11.8867
▁Antifa	-11.8867
▁Argentina	-11.8867
▁Berkeley	-11.8867
▁Brooklyn	-11.8867
▁CLICKBAIT	-11.8867
▁Central	-11.8867
▁Claudia	-11.8867
▁Cleveland	-11.8867
▁Communis	-11.8867
▁Complete	-11.8867
▁Culture	-11.8867
▁Disgusting	-11.8867
▁Dumbledore	-11.8867
▁Electric	-11.8867
▁Elizabeth	-11.8867
▁GABBIE	-11.8867
▁GODDAMN	-11.8867
▁HALLOWEEN	-11.8867
▁HAMILTON	-11.8867
▁INTERNET	-11.8867
▁Kansas	-11.8867
▁MSNBC	-11.8867
▁McCarthy	-11.8867
▁Mockingbird	-11.8867
▁Natural	-11.8867
▁Nigerian	-11.8867
▁Promotion	-11.8867
▁Ramsay	-11.8867
▁Rihanna	-11.8867
▁Rushmore	-11.8867
▁SWEET	-11.8867
▁Spotify	-11.8867
▁Stunning	-11.8867
▁THREE	-11.8867
▁TOGETHER	-11.8867
▁Tyrion	-11.8867
▁Voldemort	-11.8867
▁WARNING	-11.8867
▁Whitney	-11.8867
▁Window	-11.8867
▁Wiseau	-11.8867
▁absorb	-11.8867
▁approach	-11.8867
▁bandwagon	-11.8867
▁blindfold	-11.8867
▁bloopers	-11.8867
▁choreography	-11.8867
▁corporation	-11.8867
▁cyclop	-11.8867
▁deodorant	-11.8867
▁diabetes	-11.8867
▁dissapoint	-11.8867
▁embrace	-11.8867
▁employer	-11.8867
▁entitlement	-11.8867
▁entrance	-11.8867
▁escort	-11.8867
▁exorcis	-11.8867
▁fabric	-11.8867
▁fabulous	-11.8867
▁gentleman	-11.8867
▁gentlemen	-11.8867
▁ghetto	-11.8867
▁glorious	-11.8867
▁gluten	-11.8867
▁happier	-11.8867
▁invisible	-11.8867
▁japanese	-11.8867
▁kimmel	-11.8867
▁luxury	-11.8867
▁mainstream	-11.8867
▁mechanical	-11.8867
▁mechanism	-11.8867
▁metaphor	-11.8867
▁monument	-11.8867
▁obligat	-11.8867
▁overwhelm	-11.8867
▁paranoid	-11.8867
▁pewdiepie	-11.8867
▁rebuild	-11.8867
▁recognise	-11.8867
▁rubbish	-11.8867
▁sanctuary	-11.8867
▁scorpion	-11.8867
▁scumbags	-11.8867
▁spectrum	-11.8867
▁strategy	-11.8867
▁stumble	-11.8867
▁subscription	-11.8867
▁surprisingly	-11.8867
▁terrifying	-11.8867
▁tissue	-11.8867
▁upgrading	-11.8867
▁wicked	-11.8867
▁Atlanta	-11.8867
▁Bernie	-11.8867
▁Corinne	-11.8867
▁Cowboy	-11.8867
▁Depeche	-11.8867
▁GTFO	-11.8867
▁MEXIC	-11.8867
▁TALENT	-11.8867
▁THOMAS	-11.8867
▁cheesecake	-11.8867
▁climate	-11.8867
▁despicable	-11.8867
▁fission	-11.8867
▁friction	-11.8867
▁michael	-11.8867
freestyle	-11.8867
gamesecrx	-11.8867
nsolved	-11.8867
▁Cruise	-11.8867
▁POMEGRANATE	-11.8867
▁STEAL	-11.8867
▁Soldier	-11.8867
▁associat	-11.8867
▁reunion	-11.8867
▁swamp	-11.8867
▁underwear	-11.8867
▁DRAG	-11.8867
▁Engine	-11.8867
▁broadcast	-11.8867
▁earlier	-11.8867
▁macarons	-11.8867
▁nominated	-11.8867
▁thorough	-11.8867
Safiya	-11.8867
▁boogie	-11.8867
▁ceiling	-11.8867
▁independent	-11.8867
▁injury	-11.8867
▁muffin	-11.8867
nWatch	-11.8867
▁Sheldon	-11.8867
▁organization	-11.8867
Rebellion	-11.8867
▁Alexander	-11.8867
▁Patrick	-11.8867
▁SEXY	-11.8867
▁cruel	-11.8867
▁elected	-11.8867
▁Cliff	-11.8867
▁composed	-11.8867
▁torture	-11.8867
LOAD	-11.8867
circula	-11.8867
▁Lyric	-11.8867
▁backflip	-11.8867
Scotland	-11.8867
imperial	-11.8867
▁DEMI	-11.8867
▁PINK	-11.8867
▁Repent	-11.8867
▁dammit	-11.8867
▁Certain	-11.8867
▁Classy	-11.8867
▁Croft	-11.8867
▁rifle	-11.8867
▁Lonzo	-11.8867
▁kingdom	-11.8867
▁Wife	-11.8867
▁downhill	-11.8867
▁soldiers	-11.8867
▁CAPT	-11.8867
▁granite	-11.8867
Micheal	-11.8867
▁Candace	-11.8867
▁Coach	-11.8867
▁Truth	-11.8867
▁earrings	-11.8867
▁synth	-11.8867
▁visible	-11.8867
▁Gigi	-11.8867
▁parasite	-11.8867
▁transparen	-11.8867
▁LEFT	-11.8867
▁toxins	-11.8867
sssssssssssssss	-11.8867
▁nunca	-11.8867
▁DANG	-11.8867
Animation	-11.8867
husky	-11.8867
▁Cookie	-11.8867
▁dairy	-11.8867
nHave	-11.8867
▁Winter	-11.8867
▁Kygo	-11.8867
▁vertical	-11.8867
▁Artem	-11.8867
Animal	-11.8867
▁MIND	-11.8867
LOGAN	-11.8867
▁goofy	-11.8867
▁alumin	-11.8867
▁kidney	-11.8867
▁reassur	-11.8867
▁Truly	-11.8867
▁Mutant	-11.8867
▁FBI	-11.8867
▁identify	-11.8867
▁Royal	-11.8867
▁ashamed	-11.8867
Replica	-11.8868
▁Arden	-11.8868
▁JENN	-11.8868
▁Ariel	-11.8868
▁hawk	-11.8868
Crystal	-11.8868
▁greet	-11.8868
▁DICK	-11.8868
▁flew	-11.8868
▁subcrib	-11.8868
▁wifi	-11.8868
prano	-11.8868
▁cheek	-11.8868
▁Each	-11.8868
▁busted	-11.8868
▁operate	-11.8868
▁sponsorship	-11.8868
▁branch	-11.8868
▁Cross	-11.8868
▁YESSSSSSSS	-11.8868
▁Megan	-11.8868
ETHAN	-11.8868
▁charming	-11.8868
▁counsel	-11.8868
▁interference	-11.8868
▁peeps	-11.8868
▁Owen	-11.8868
▁investigat	-11.8868
▁TURN	-11.8868
lossom	-11.8868
▁BvS	-11.8868
▁MILL	-11.8868
▁siempre	-11.8868
▁basis	-11.8868
uniform	-11.8868
▁FACTS	-11.8868
▁capitalism	-11.8868
▁pirate	-11.8868
,500	-11.8868
ssistant	-11.8868
▁Zedd	-11.8868
▁llama	-11.8868
▁Hurt	-11.8869
▁Szec	-11.8869
▁$$$	-11.8869
▁LIAR	-11.8869
▁Child	-11.8869
▁firing	-11.8869
▁AFTER	-11.8869
▁task	-11.8869
▁tapping	-11.8869
▁Miami	-11.8869
4:13	-11.8869
▁Barbar	-11.8869
▁Kirk	-11.8869
▁glam	-11.887
▁Oops	-11.887
▁EXC	-11.887
▁Agent	-11.887
▁vision	-11.887
▁cider	-11.8871
▁escu	-11.8871
▁Ultima	-11.8871
,000,000	-11.8871
oyote	-11.8871
▁Buen	-11.8872
HOOD	-11.8872
Daily	-11.8872
▁israel	-11.8873
▁uglie	-11.8874
▁reliabl	-11.8874
▁Hawk	-11.8874
Charles	-11.8875
ontact	-11.8876
▁Find	-11.8876
xcuse	-11.888
▁Slim	-11.8882
▁Grab	-11.8884
▁wrap	-11.8888
▁Retard	-11.8894
▁Fift	-11.8896
ovato	-11.8912
iiiiiiiiiiiii	-11.8913
EVEL	-11.8914
darling	-11.8915
▁TOTAL	-11.8927
▁coope	-11.8949
▁Tube	-11.8954
▁hollow	-11.8956
fuq	-11.8967
EASON	-11.8968
▁severe	-11.8977
xxxx	-11.9001
grid	-11.9032
transformer	-11.9065
instrumental	-11.9136
actresses	-11.9164
censored	-11.917
prised	-11.9269
ngelica	-11.9322
EPIC	-11.9345
bush	-11.9355
feeding	-11.9372
onnie	-11.9414
▁flex	-11.9423
▁fulfil	-11.9523
phobia	-11.9616
iiiiiiii	-11.9757
ciones	-11.9889
NFL	-12.0086
evolutionary	-12.0117
Power	-12.0118
scream	-12.0121
▁11:1	-12.0122
generation	-12.0122
dislike	-12.0124
famous	-12.0125
Girl	-12.0126
content	-12.0127
Congratulations	-12.0127
credit	-12.0128
Video	-12.0128
Beautiful	-12.013
pretty	-12.0132
would	-12.0133
ndicat	-12.0134
HILE	-12.0158
▁22:1	-12.0161
smoker	-12.0184
conduct	-12.0275
umbling	-12.0518
MEDIA	-12.0679
nxiety	-12.0726
UUU	-12.073
▁presiden	-12.0783
▁dislik	-12.08
ECTION	-12.0823
▁positiv	-12.0843
▁Serious	-12.0848
hahahahhahahah	-12.0853
measur	-12.086
▁Hawaii	-12.0861
▁competiti	-12.0861
▁advertise	-12.0863
nfinite	-12.0865
positio	-12.0866
destruct	-12.0866
____	-12.0866
MrSinjub	-12.0866
hahhahahah	-12.0867
nPLEASE	-12.0867
technologies	-12.0867
CakeBookQuiz	-12.0867
Traitor	-12.0867
mmmmmmm	-12.0867
▁Franci	-12.0867
▁antimatter	-12.0867
▁exclusive	-12.0867
▁stubborn	-12.0867
Consumer	-12.0867
Portugal	-12.0867
nCongrat	-12.0867
▁Hypocrite	-12.0867
▁LGBTQ	-12.0867
▁catastroph	-12.0867
▁database	-12.0867
DDDDDD	-12.0867
Extreme	-12.0867
FANTASTIC	-12.0867
Flawless	-12.0867
Frankenstein	-12.0867
Koenigsegg	-12.0867
MILLONARIOS	-12.0867
OGRAPH	-12.0867
Original	-12.0867
PewDiePie	-12.0867
determinism	-12.0867
nCould	-12.0867
nHonestly	-12.0867
nSubscribe	-12.0867
principle	-12.0867
uneducated	-12.0867
unexpected	-12.0867
zzzzzzzzzz	-12.0867
▁ARNOLD	-12.0867
▁AWFUL	-12.0867
▁Apocalypse	-12.0867
▁Audiotree	-12.0867
▁BELIEVE	-12.0867
▁BULLSHIT	-12.0867
▁Basketball	-12.0867
▁CHILL	-12.0867
▁Charlottesville	-12.0867
▁DAVID	-12.0867
▁Dominican	-12.0867
▁Edinburgh	-12.0867
▁FREAKED	-12.0867
▁Filipino	-12.0867
▁Followers	-12.0867
▁Gardevoir	-12.0867
▁HILARIOUS	-12.0867
▁HISTORY	-12.0867
▁Hamilton	-12.0867
▁INSANE	-12.0867
▁JANET	-12.0867
▁Jumanji	-12.0867
▁MacDonald	-12.0867
▁Oculus	-12.0867
▁POTUS	-12.0867
▁PREGNAN	-12.0867
▁Patricia	-12.0867
▁Program	-12.0867
▁RACIST	-12.0867
▁REPEAT	-12.0867
▁Reynolds	-12.0867
▁SWEAT	-12.0867
▁Schumer	-12.0867
▁Spoiler	-12.0867
▁Steelers	-12.0867
▁Timberlake	-12.0867
▁Titanic	-12.0867
▁Tuesday	-12.0867
▁Typical	-12.0867
▁University	-12.0867
▁Virginia	-12.0867
▁Vsauce	-12.0867
▁accelerate	-12.0867
▁accuracy	-12.0867
▁architecture	-12.0867
▁beeswax	-12.0867
▁brasileir	-12.0867
▁candidate	-12.0867
▁categori	-12.0867
▁compromise	-12.0867
▁conciousness	-12.0867
▁confident	-12.0867
▁contemplat	-12.0867
▁convention	-12.0867
▁convincing	-12.0867
▁degenerate	-12.0867
▁dipshit	-12.0867
▁discrimination	-12.0867
▁doppelganger	-12.0867
▁doughnut	-12.0867
▁eliminate	-12.0867
▁embarrassment	-12.0867
▁emphasize	-12.0867
▁exquisite	-12.0867
▁futurist	-12.0867
▁grandparents	-12.0867
▁harvest	-12.0867
▁hypocritical	-12.0867
▁illustrate	-12.0867
▁immature	-12.0867
▁industrial	-12.0867
▁kawaii	-12.0867
▁mannerisms	-12.0867
▁matpat	-12.0867
▁mediocr	-12.0867
▁musique	-12.0867
▁nintendo	-12.0867
▁obscure	-12.0867
▁occasion	-12.0867
▁overpriced	-12.0867
▁pendulum	-12.0867
▁perception	-12.0867
▁philosophy	-12.0867
▁pineapple	-12.0867
▁predetermined	-12.0867
▁schedule	-12.0867
▁simultaneously	-12.0867
▁skateboard	-12.0867
▁starbucks	-12.0867
▁storytelling	-12.0867
▁syndrome	-12.0867
▁titanic	-12.0867
▁transgender	-12.0867
▁tremendous	-12.0867
▁whistles	-12.0867
Relationship	-12.0867
nReally	-12.0867
▁Bannon	-12.0867
▁CHILD	-12.0867
▁Congress	-12.0867
▁Cristine	-12.0867
▁LISTEN	-12.0867
▁Maggie	-12.0867
▁Nutella	-12.0867
▁PRECIOUS	-12.0867
▁Whisper	-12.0867
▁beliefs	-12.0867
▁consequence	-12.0867
▁contributed	-12.0867
▁dessert	-12.0867
▁destiny	-12.0867
▁domestic	-12.0867
▁earbud	-12.0867
▁europe	-12.0867
▁immortal	-12.0867
▁indonesia	-12.0867
▁kanye	-12.0867
▁manipulati	-12.0867
▁nipple	-12.0867
▁parachut	-12.0867
▁patience	-12.0867
▁rewind	-12.0867
▁savior	-12.0867
▁stretch	-12.0867
▁suspect	-12.0867
▁tragic	-12.0867
▁variable	-12.0867
▁Dwayne	-12.0867
▁Georgia	-12.0867
▁Pakistan	-12.0867
▁SENSE	-12.0867
▁Simpson	-12.0867
▁department	-12.0867
▁eclipse	-12.0867
▁expans	-12.0867
▁preserve	-12.0867
▁reunite	-12.0867
qualified	-12.0867
▁Joanne	-12.0867
▁museum	-12.0867
▁supplies	-12.0867
phelia	-12.0867
▁Jhene	-12.0867
▁KELLY	-12.0867
▁Southwest	-12.0867
▁clique	-12.0867
▁cuddle	-12.0867
▁devastati	-12.0867
▁veloci	-12.0867
▁0110100	-12.0867
▁Barbie	-12.0867
▁Support	-12.0867
▁WASTED	-12.0867
▁koshy	-12.0867
▁medicine	-12.0867
▁miserable	-12.0867
▁spencer	-12.0867
▁squash	-12.0867
▁JEW	-12.0867
▁hulk	-12.0867
▁oxidiz	-12.0867
GRAM	-12.0867
▁Francisco	-12.0867
▁bundle	-12.0867
▁veggie	-12.0867
HARVE	-12.0867
HOAX	-12.0867
▁Cinema	-12.0867
▁SISTER	-12.0867
▁SUCKS	-12.0867
▁brief	-12.0867
▁Cassie	-12.0867
▁HUMAN	-12.0867
▁PTSD	-12.0867
▁RUIN	-12.0867
▁homophobic	-12.0867
▁session	-12.0867
▁EYES	-12.0867
▁Hunter	-12.0867
▁Pilot	-12.0867
▁RICO	-12.0867
▁policy	-12.0867
FFLE	-12.0867
▁replies	-12.0867
clutch	-12.0867
▁Tatum	-12.0867
▁limbs	-12.0867
DONALD	-12.0867
▁Frozen	-12.0867
▁Kingdom	-12.0867
▁Nature	-12.0867
▁Rucker	-12.0867
▁fascinating	-12.0867
▁pansino	-12.0867
Kosovo	-12.0867
MONTH	-12.0867
▁radar	-12.0867
LIGHT	-12.0867
▁Botox	-12.0867
▁Stonie	-12.0867
▁thicc	-12.0867
▁Kenya	-12.0867
▁prevent	-12.0867
▁Margot	-12.0867
▁NPR	-12.0867
▁Norton	-12.0867
▁FEW	-12.0867
▁fireworks	-12.0867
▁SPIDER	-12.0867
cuador	-12.0867
status	-12.0867
drooling	-12.0867
▁Hollyn	-12.0867
▁wreck	-12.0867
ccessories	-12.0867
▁Children	-12.0867
▁fragil	-12.0867
▁Emily	-12.0867
Purple	-12.0867
▁loyalty	-12.0867
▁license	-12.0867
▁Content	-12.0867
▁agency	-12.0867
▁firearm	-12.0867
▁cosplay	-12.0867
▁Dolph	-12.0867
nWait	-12.0867
▁Brett	-12.0867
▁Syria	-12.0867
▁detecti	-12.0867
Alodia	-12.0867
CRACK	-12.0867
▁extent	-12.0868
Murder	-12.0868
▁gopro	-12.0868
▁scalp	-12.0868
▁sjw	-12.0868
patreon	-12.0868
▁CUNT	-12.0868
biotic	-12.0868
▁Usher	-12.0868
hammad	-12.0868
▁pervert	-12.0868
General	-12.0868
MVP	-12.0868
PPP	-12.0868
Nissan	-12.0869
hustle	-12.0869
▁Avenge	-12.0869
nevermind	-12.0869
renheit	-12.0869
▁phoe	-12.0869
▁Critic	-12.0869
▁propose	-12.087
jenna	-12.087
▁vacu	-12.087
enacious	-12.087
▁Brooke	-12.087
Teacher	-12.0872
ovich	-12.0872
Skip	-12.0873
▁politi	-12.0873
latliners	-12.0874
▁alegr	-12.0874
▁GENERA	-12.0875
▁Euro	-12.0879
Iceland	-12.0879
▁replica	-12.0881
▁dominat	-12.0887
▁slop	-12.0887
▁Reporte	-12.0888
wirl	-12.0889
▁Carmel	-12.089
▁Pabl	-12.0891
recover	-12.0894
NUT	-12.0899
identifi	-12.0907
▁MERC	-12.0909
▁doodl	-12.0912
▁Zoe	-12.0914
atomic	-12.0919
UUUUUU	-12.0957
▁Gurl	-12.0979
Mouse	-12.099
eadliest	-12.0999
▁rattl	-12.1008
elena	-12.101
claw	-12.1014
Forget	-12.1023
aybelline	-12.1041
Leftist	-12.1059
additional	-12.1076
▁atroci	-12.1142
▁casual	-12.1203
Forever	-12.1209
rophet	-12.1269
▁00:3	-12.1318
▁00:2	-12.1322
▁songwrit	-12.1422
libr	-12.1471
ymbolism	-12.1496
Vlogs	-12.1516
dependenc	-12.1521
CHANGE	-12.1571
COMPL	-12.1954
mixing	-12.2006
▁conserva	-12.2017
ownload	-12.2089
phobic	-12.212
▁marr	-12.2168
listener	-12.2437
Hurricane	-12.2616
politics	-12.2617
WATCH	-12.2617
thumbs	-12.2618
Remember	-12.2621
halloween	-12.2622
perfect	-12.2624
control	-12.2625
WHERE	-12.2626
Jimmy	-12.2627
Because	-12.2628
imagine	-12.2629
episode	-12.263
Awesome	-12.2631
should	-12.2634
▁classifi	-12.2804
collecting	-12.2929
EEEEEEEEEEEEEEE	-12.2953
laugh	-12.3061
iscovery	-12.3089
believable	-12.3094
▁CONGRAT	-12.3165
▁appropriat	-12.3224
spective	-12.3225
nnoying	-12.3229
▁russia	-12.3271
cdonalds	-12.33
arriors	-12.3321
▁disgust	-12.3321
nstantly	-12.3337
▁documentar	-12.3337
▁extrem	-12.3338
▁sudden	-12.3347
▁regulat	-12.3352
▁depressi	-12.336
regnancy	-12.3364
rofessional	-12.3364
